#version: 0.2
Ġ Ġ
ĠĠ ĠĠ
i n
e s
e n
o n
Ġ d
Ġ a
e r
ĠĠ Ġ
r e
Ġ l
Ġ t
Ġ s
a t
Ġ p
o r
Ã ©
Ġ c
a n
i s
Ġ =
i t
a r
u r
e l
Ġ f
en t
ĠĠĠĠ ĠĠĠ
Ġd e
a l
e t
a s
i on
h e
r o
Ġ in
Ġ n
q u
l e
Ġ m
c t
u t
Ġ re
u m
u n
d e
Ġt he
t r
i m
a m
in g
Ġ o
i f
u s
o m
Ġ r
) :
Ġ T
Ġ Ċ
t h
ĠĠĠĠ ĠĠĠĠ
is t
Ġ P
e m
i c
es t
at e
Ġ C
Ġt o
i l
in t
Ġl a
or t
s e
Ġ b
u l
Ġa n
Ġ g
ur n
Ġ 1
Ġ '
Ġ et
g e
t urn
i v
as k
at ion
el f
e x
Ġre turn
Ġ (
y th
Ġ w
Ġl e
yth on
Ġf or
c e
Ġd es
Ġ "
Ġ en
c h
Ġ L
r int
er s
ĠT ask
r a
o l
s t
or d
ĠĠĠĠ ĠĠĠĠĠĠĠ
Ġ v
qu e
Ġo f
ĠP ython
Ã ¨
Ġ Ã
p ort
Ġ #
r i
Ġp ro
Ġp ar
Ġ if
- -
r es
Ġn um
tr ing
l o
de f
Ġc on
a p
an t
ct ion
o d
i e
o ur
i g
at a
it e
Ġ un
Ġan d
Ġ A
im port
am e
Ġl es
a d
o t
an d
ĠÃ ł
i d
as s
Ġ S
o u
Ġ [
e d
Ġ M
Ġ +
Ġd u
( )
Ġs elf
Ġa r
p l
' ,
u e
p t
em ent
a in
en d
Ġ 2
a c
# #
ul t
p ut
ro m
Ġc om
i r
an s
Ġt h
Ġ D
c i
Ġ 0
g r
a b
Ġ el
_ _
on t
Ġ qu
o p
Ġ Ã©
Ġ F
) )
o de
re ate
v e
Ġl ist
Ġc h
a ge
Ġp rint
Ġ h
ex t
Ã© s
l ist
es s
Ġ is
gr am
n e
Ġ B
i le
m e
p rint
n um
u x
Ġnum b
v er
s elf
i b
in e
( "
Ġ= =
t er
o s
Ġ G
Ġ i
c l
( '
i re
Ġ est
Ġm a
Ġ I
i que
" ,
i z
an ge
Ġs e
t e
Ġpro gram
Ġp l
Ã© c
Ġ j
o un
Ġp r
w ord
Ġa l
Ġs tring
ĠC reate
a g
p e
in d
a y
Ã© e
m ent
= =
0 0
f or
u b
d i
o g
Ġ N
it h
t o
on e
Ġde f
â Ģ
n ame
' )
Ġ :
Ġ y
' :
Ġa s
Ġd ata
-- --
k e
Ġ R
u p
Ġr ange
Ġ E
Ġr es
od el
Ġp our
Ġ W
a ct
Ġ -
ĠĠĠĠĠĠĠĠ ĠĠĠĠĠĠĠ
Ġ us
s tring
iv en
ap p
Ġ e
Ġ ro
Ġ O
Ġth at
Ġd ans
qu es
im e
Ġ ex
Ã© r
u re
ar t
en ce
Ġg iven
âĢ Ļ
al e
Ã© es
en er
) ,
Ġ Â
h t
ur es
Ġ {
a ut
d ata
Ġc l
Ġ import
Ġa u
' ]
Ġw ord
Ġl en
r ite
Ġun e
Ġ it
un ction
oun t
p r
c k
ĠĠ Ċ
ra y
l es
Ġd Ã©
Ã¨ re
" )
Ġn e
s tr
## ##
a is
Ġ 3
o w
Ġ %
g et
al l
ar r
f rom
and om
e ct
en s
o b
v al
ener ate
i ques
c on
" "
an ce
u ct
ur s
Ġr Ã©
Ġs t
ĠĠĠĠĠĠĠĠ ĠĠĠĠĠĠĠĠ
p le
an g
[ '
iz e
Ġqu i
i er
Ġs c
Ġ x
Ġf unction
at h
ke y
Ġnumb er
ic e
Ġn ot
l en
a u
er t
c om
o st
ĠL e
Ġv al
Ġpl us
p h
ic ation
Ġ que
as e
Ġres ult
ar d
a it
Ġ1 9
iv e
ar y
Ġel se
Ġma x
Ġ <
Ġcon t
ĠW rite
] ,
Ġnumb ers
Ġs ur
Ġf rom
] )
Ġ 5
Ġw ith
Ġcl ass
app end
Ġ+ =
for m
o c
Ġ or
p er
i ent
us t
it Ã©
ig n
) .
ut put
Ġ H
p ar
o re
Ġt ra
Ġp re
i es
r ue
ab le
Ġar r
qu est
en c
Ġs o
il l
Ã© t
Ġw h
ĠÃ© t
in s
c c
Ġ 4
f f
ĠL a
i p
ion s
Ġr andom
t ext
Ġch ar
Ġo u
ĉ ĉ
di ct
Ġc ode
t est
Ġ J
p on
el le
Ġ *
on g
Ġs ont
m a
ri pt
m odel
Ġin put
num b
Ġs ort
or s
Ġa p
d d
== ==
g th
res s
Ġcom m
lo w
ur r
Ġ __
a k
i al
Ã¨ s
Ġs um
Ġ U
Ã ª
Ġf in
de x
ve c
u es
Ġt w
cl ass
ation s
p ro
ur l
al c
a ire
Ġpar t
---- ----
Ġ[ ]
Ġar ray
Ġ >
a il
is s
ĠĠĠĠ Ċ
ar g
Ġ ;
" :
r an
Ġm odel
Ġal l
u d
ĠÂ »
Ġc ol
ar ch
s er
Ġg et
Ġs tr
a ce
p o
Ġd i
Ġ V
ac k
i en
Ġa vec
f r
alc ul
em p
j ect
ent r
Ġl og
Ġel ement
word s
v el
Ġre quest
ĠÂ «
Ã© n
Ġt r
Ġf ind
ĠL es
g or
ut e
pl it
ĠD e
m o
p y
al se
if ication
d u
ĠC h
Ġ on
t re
Ã© ri
Ġ2 0
y pe
b o
a v
it ion
Ġtw o
p os
el s
a ux
he ck
ou p
it y
Ġ ,
s c
p re
ĠE n
it em
Ġword s
Ġt ext
] [
Ġ1 0
s on
un e
ent s
o is
Ġ ent
Ġn ame
#### ####
tr ain
ar n
Ġs on
( ):
Ġp er
Ġne w
ad d
Ġ .
m at
= '
Ġw e
Ġm in
res ult
Ġn p
Ġs h
as t
aut h
Ġs et
Ġus ing
ĠG enerate
Ġb e
a re
Ġc ount
Ġ key
ri que
i de
Ġs ent
et h
/ /
Ġit em
m l
a ch
Ġf il
Ġg enerate
Ġp ython
ite ct
Ġp e
Ġs u
ĠĠĠĠ Ġ
in it
Ġar ch
Ġm at
ig ht
Ġ k
T P
an ci
Ġs y
Ġ il
Ġ 8
ay s
if f
on n
in put
b re
f rique
ĠN one
Ġn om
cl us
alcul ate
Ġc entr
Ġs ub
is Ã©es
m in
Ã §
u is
ĠT rue
f t
if y
ass word
Ġin t
it s
Ġd is
w e
Ġa ut
s um
ĠF alse
Ġ 6
Ġn Ã©c
i x
ĠT he
Ġa t
Ġc e
i el
Ġ im
I n
ĠnÃ©c ess
as tr
ĠĠĠĠĠĠĠĠ ĠĠĠĠĠĠĠĠĠĠĠ
u g
Ã©c ur
pon se
o ut
ou v
Ġarch itect
urr ent
Ġo b
is e
Ġp os
Ġs er
Ġsc ript
Ġus er
Ġm o
__ (
Ġval ue
Ġcentr ale
Ġs Ã©cur
it le
i res
uct ures
ver t
et te
ce pt
o ul
1 0
r it
Ġ" ""
ĠI n
s plit
ĠA frique
ob ile
Ġfin anci
at es
s ort
Ġro b
fr astr
c ess
c s
Ġ K
Ġcom me
= "
ar ray
i Ã¨re
one y
auth ent
Ġel if
frastr uctures
Ġs a
ĠnÃ©cess ite
in clus
Ġin frastructures
Ġfinanci Ã¨re
Ġt ak
il le
ust es
ver se
Ġarchitect ures
gor ith
c es
e ur
ĠM obile
Ã ´
Ġlog iques
authent ification
Ġrob ustes
ĠM oney
ĠsÃ©cur isÃ©es
inclus ion
ĠO TP
f ile
Ġb o
Ġc an
p ath
ic h
ub l
Ġa ux
c ount
ar i
r Ã©
im ent
s ent
p s
Ġa dd
gorith m
s et
il d
i Ã¨
Ġa v
numb ers
vel op
r and
ĠI l
Ġtak es
ri x
eth od
Ġ 7
( [
us s
c he
Ġa re
Ġl ong
at ure
re e
o k
b le
he ad
ma x
t al
Ġm on
am ple
ĠC on
Ġal gorithm
) ):
Ġchar act
ction s
ess age
v en
er n
in dex
Ġp o
Ġt er
Ġo utput
1 9
Ġp as
Ġt est
u i
Ġ2 00
ain s
en se
l y
Ã© g
enc es
Ġrequest s
re ad
ut il
re qu
Ġm od
al ement
d uct
c ol
Ã© d
Ġb y
Ġc reate
Ġ{ }
d ate
Ã ¢
ĠP ar
Ġ em
Ġc heck
ag es
h is
ant s
Ġs k
s h
ro w
Ġwe b
ra ph
Ġar g
m es
ch ar
ut ion
Ġ up
Ġc alculate
Ġd at
m ain
el l
pt im
e c
Ġen d
ist e
len gth
r or
==== ====
ress ion
k en
le arn
val ue
Ġto tal
in k
Ġt ro
Ã© l
o ire
iel d
Ġent re
o ir
Ġa cc
Ġin ter
op ul
Ġa m
f it
o in
ac ci
Ġ 9
f ind
Ġd iff
ction ary
mo ve
Ġstring s
v ent
ir st
ib on
ibon acci
Ġc urrent
Ġde ux
Ġin to
oul d
Ġro w
Ġf ile
ĠD es
Ġpre m
it u
numb er
al es
u le
Ġwh ile
form at
id ent
Ġo ut
2 0
E R
ib le
Ġp ays
c ont
ic es
ĠÃ ī
et t
Ġlen gth
at s
Ġe ach
iz er
Ġsk learn
"" "
at or
Ġ /
te g
Ġen c
" ]
Ġ1 8
ĠO utput
Ġp h
our s
a ires
Ġa ct
Ġl o
T he
Ġcon s
Ġma is
im um
ol og
us er
tr ib
Ġtra in
Ġm ethod
ht ml
p end
lo t
T rue
Ã ®
Ġsort ed
r y
Ġl ang
on d
Ġc ar
m y
item s
S T
ain e
Ġl ine
Ġp d
uss i
ĠrÃ© g
er y
con d
n ode
Ġf ol
ĠÃ©t Ã©
Ġd iv
ĠC om
Ġc or
ĠB e
p art
ic k
-------- --------
ran Ã§
ig h
Ġper m
Ġt emp
et s
Ġs to
R e
Ġ ont
ri g
Ġs es
. .
ement s
if ier
Ġin teg
Ġ !
l d
: //
b ase
ay er
f o
Ġ20 1
Ġelement s
l ab
el lo
num s
Ġan n
s ize
r andom
Ġj son
com m
d b
Ġpr Ã©s
Ġsh ould
b in
ĠA n
t itle
um n
t ype
Ġ ord
tr act
um ent
Ġd Ã©c
Ġfol low
on s
Ġt ime
Ġsent ence
Ġdi ctionary
i ers
Ġin d
Ãª me
al is
Ġcon n
Ġreturn s
s ub
t ime
oun d
o us
l ask
Ġin dex
cs v
Ġs pe
n es
Ġb as
ĠA r
or m
Ġnom bre
ht t
Ġv ers
Ġp opul
Ġ! =
l ine
o f
Ġre l
j oin
Ġre c
Ġa ussi
ar get
qu ence
Ġl ib
in es
v ers
v ie
Ġp ol
Ġ _
Ġob ject
s p
ro up
Ġ X
Ġfollow ing
e an
* *
Ġ' '
ĠÃ© g
Ġm ar
ult i
] :
[ :
st art
Ġo p
a x
ĠA l
Ġre verse
y s
ĠR e
Ġ z
Ġ )
c ript
Ġst art
Ġf ait
######## ########
Ġpr ime
ĠDes ign
Ġs p
s o
'] )
Ġso us
ins i
or k
O N
Ġs ol
ranÃ§ ais
Ġval ues
at ures
a ient
at ing
Ġ[ '
Ġp assword
f ig
our ce
Ġpo int
r iv
Ġtr ans
w w
c o
if ul
Ġo s
as et
aut iful
() )
Ġ{ '
Ġcom p
Ġde v
f il
Ġse arch
Ġn ode
L ist
Ġf irst
Ġres ponse
Ġ }
f e
er e
I N
a ve
Ġ Y
i a
Ã ł
st ate
Ġd o
Ġv ari
S oup
Ġle ur
autiful Soup
ple ment
Ġin st
arg s
a h
am b
Ġs up
y e
Ġlong est
Ġd ont
ect or
A n
Ġc ette
E n
l u
Ġy ou
i qu
sent ence
ct or
Ġcon vert
Ġwh ich
el les
pl ication
Ġf ranÃ§ais
ci p
ter n
< /
ant e
ĠBe autifulSoup
Ġp ers
et we
o ice
p assword
) ]
" .
Ġ util
[ "
l st
l ib
lo ad
to ken
enc y
etwe en
Ġp ass
A r
i an
it Ã©s
lo g
is me
u ild
o y
Ġcomm un
ĠDe velop
P I
Ġnum py
Ġap p
a int
Ġpr in
ac y
at ive
ĠS e
Ġd ist
us e
Ġp ubl
Ġre move
re t
th er
an n
it ial
om e
Ġc ap
or ld
Ġth is
Ġf e
Ġex p
r ance
Ġb etween
Ġcharact ers
v ir
s s
Ã ī
pl ace
i o
t k
er as
ust om
re q
Ġg Ã©n
Ġa d
ro ot
U n
Ġp ort
ap e
n ext
d es
ne w
a ult
Ġt ype
am p
Ġh as
am es
ur acy
rig ht
j son
Ġm an
Ġsto re
i ens
Ġ19 9
Ġar t
Ġpro duct
Ġse cond
p uis
Ġt able
d it
Ġpro du
m p
r ror
ĠP ro
et ter
A T
Ġus e
Ġc o
Ġre pr
res ponse
m s
a ke
Ġp ath
ag ne
ry pt
b y
ĠS t
pl ic
Ġa insi
c ode
b l
b er
Ġw ill
ĠÃ©g alement
ent e
low er
bo ard
l le
] .
Ġpro v
re f
ver age
Ġprint s
' s
E rror
Ġm Ãªme
sc ore
Ġpos s
Ġg re
1 2
pr Ã¨s
E T
Ġord er
og raph
ind ow
ic al
u v
E S
Ġm ulti
com p
. _
act or
ĠÃ ª
Ġg rand
Ġpe ut
o h
Ġs im
Ġpe u
or es
ĠI m
Ã ¯
ab les
pl es
d ir
m an
v ice
po int
re turn
u er
lo at
Ġc ert
t es
Ġo ptim
H ello
ĠĠĠĠĠĠĠĠ ĠĠĠĠĠĠĠĠĠĠĠĠĠĠĠ
d er
ac c
end er
g an
ex ample
l er
Ġd ire
val ues
Ġ1 00
C l
Ġc our
is ation
is ion
ult ure
f in
v ol
Ġem ail
riv er
ĠÃª tre
ĠE x
ie d
Ġ1 5
Ġd el
d f
Ġm y
Ġso ci
Ġs el
ĠF rance
ow n
ĠCh ar
t en
Ġ url
ie u
Ġpar am
Ġo cc
Ġdat aset
r ic
ut es
e ch
arg est
im es
p lot
Ġbo ard
requ ency
c le
d a
Ġre g
ĠP rint
le ft
Ġt arget
Ġe ff
string s
Ġprin cip
um e
Ġa b
a ir
ĠĠĠĠĠĠĠĠĠĠĠĠĠĠĠĠ ĠĠĠĠĠĠĠĠĠĠĠĠĠĠĠĠ
Ġr est
lo c
u it
en ne
Ġas s
Ġinteg ers
Ġmax imum
Ġsy st
am ment
o le
Ġcon st
Ġm er
Ġla b
Ġ[ "
m essage
Ġpopul ation
on ne
Ġp age
Ġro ot
Ġcharact er
a ction
Ġc es
ĠT his
t on
int er
g l
ch oice
Ġtr Ã¨s
lab el
Ġd oc
Ġsent iment
C h
Ġpart ic
cript ion
y n
ie urs
Ġmat rix
Ġm essage
u de
Ġl oc
N ame
Ġel le
Ġit s
l tk
' ))
Ġact iv
1 00
Ġre m
le ct
Ġ Q
ate d
Ġc he
Ġpr Ã©
el ement
Ġann Ã©es
ĠB r
ang o
i us
in st
Ġ' __
__ ':
ar s
al le
pl t
Ġs oup
pl ay
c ase
l at
in ary
Ġdata base
1 8
ĠĠĠĠĠĠĠĠ Ċ
ain es
Ġh t
res ent
Ġa ge
et urn
o pt
Ġl ow
Ġr un
ou ver
it er
sort ed
Ġn on
Ġm Ã©
ĠgÃ©n Ã©r
Ġb ase
Å ĵ
Ġl ink
Ġpart ie
ist es
al ind
alind rom
Ġf r
Ã ¹
q l
pe ct
Ġcol umn
le ment
pre dict
S tring
et ime
ĠC e
Ġex tract
Ġtro is
S E
Ġfor m
A l
w ork
ĠÃī t
lo ck
A R
Ġl ui
um ents
and as
Ġ one
Ġ< =
r en
tr ans
r on
Ġnum s
pr ime
: ",
w rite
Ã© ment
ri d
str uct
Ġex cept
' }
it es
e urs
ĠD ans
Ġv is
ec ute
ĠrÃ©g ion
ĠĠĠĠ ĠĠ
Ġp at
et e
ĠF lask
Â ł
an c
======== ========
Ġc rÃ©
ate gor
T his
Ġn ou
Ġ1 2
pr ice
'] ,
od es
Ġpol it
se arch
ne ct
ur op
ĠÃ©t ait
Ã© m
Ġm ost
ais e
Ġ he
Ġn ation
ĠU n
Ġ" "
ess ion
L E
b e
i ct
Ġn ltk
oh n
Ġp ost
ob ject
id th
ĠdÃ© velop
b ut
ĠI f
Ġd ate
Ġal ors
en ame
Ġb re
Ġde puis
', '
Ġ `
al y
Ġlib r
Ġlo op
Ġop en
Ġ |
Ġd om
Ġan y
t em
Ġutil is
u age
ch es
Ġcon c
Ġcont ain
Ġr Ã©s
r un
Ġc a
Ġcom put
Ġ" ,
iÃ¨ res
O R
Ġm et
ot al
po se
ien ne
Ġclass ify
Ġ head
Ġp andas
Ġt itle
Ġ( '
6 4
ro p
pro cess
y p
Ġrepr Ã©s
ra p
a Ã®
ĠF ibonacci
cont ent
l ay
Ġst at
p age
Ġo Ã¹
Ġl st
Ġs ign
ig its
Ġplus ieurs
u al
' .
Ġg ra
in fo
Ġspe c
ug h
Ġc ent
Ġmethod s
iz ed
re ct
tr es
ĠÂ» ,
Ġf ut
Ã¨ me
em ail
ĠG et
Ġj e
ra w
urs or
Ġr ight
ĠPar is
] ]
Ġpre dict
m i
iv ers
vir on
ate ur
Ġcomm and
mat rix
ech n
Ġg r
op y
ro ugh
Ġun ique
j ango
Ġv ie
Ġval id
par am
c end
Ġan s
R L
Ġ1 7
d iv
t ag
Ġfor mat
o v
if ic
Ġth rough
Ã´ t
amb da
lo b
5 0
e ction
Ġo ver
olog ie
el se
Ġo pt
htt ps
Ã¨ ne
it ive
ĠT ra
om m
ag n
Ġl ors
Ġp uis
ett ers
d at
Ġcon f
' '
Ġnot amment
pt y
M L
Ġc in
c lo
Ġv ille
form ation
Ġa c
us es
ĠdÃ© part
vie w
ul es
o utput
par ser
N T
= ['
ex p
alindrom e
iv es
ĠA PI
Ġle ft
t able
f ic
l i
par se
Ġcomm on
Ġh ave
Ġre ad
Ġf a
arn ing
ro u
c or
Ã©t Ã©
Ġcont re
( (
de d
Ġ" )
Ġa prÃ¨s
Ġf on
e p
ĠR eturn
Ġarg s
i Ã©
Ġ19 8
p ubl
ĠÃ Ģ
ĠS aint
Ġd Ã©s
ĠT o
pon d
ustom er
Ġtr y
Ġe ven
w ith
s ite
re g
et ers
Ġj us
Ġprem ier
er ror
ĠA u
Ġh igh
pos ition
ĠM ar
Ã©ri e
Ġbre ak
V al
Ġm us
emp lo
an ces
str u
on c
Ġqu ery
Ġresult s
oun ter
ran de
qu al
ĉĉ ĉ
Ġsy s
Ġd onn
at er
ĠĠĠĠĠĠĠĠ Ġ
ow els
ĠÂ» .
itial ize
I T
g er
Ġ id
d is
Ġo ther
ĠrÃ© alis
Ġre t
Ġmon de
c re
us tr
Re g
Ġin s
Ġdi ct
Ġcont in
Ġsc ore
Ġ1 1
Cl ass
a z
w h
ol d
u ff
elle ment
Ã©r ic
N um
Ġt f
Ġ[ [
an a
ist or
con n
ĠO n
Ġt ree
ĠT h
htt p
2 5
() ,
qu are
ch er
m all
is h
Ġdiff Ã©r
es p
if ied
ig ne
val u
d ition
Ġitem s
Ġo per
Ġf o
le m
Ġ //
Ġfil ter
m et
Ġ \
ĠL o
ic ense
ot e
R E
Ġto ut
Ġvers ion
it t
n ement
Ġl etter
Ġf ound
em ble
ector izer
em ple
ĠÃ© c
Ġs ans
al itÃ©
Ġ19 7
R O
Ġm ain
Ġd ur
Ġs ud
Ġm il
ap i
Ġth an
Ġb l
Ġap plication
Ġpro cess
() .
i k
En ter
Ġpl ayer
ĠC l
Ġre p
c ent
o se
Ġ âĢ
A C
Ġl argest
Ġm em
or g
ist oire
qu ery
Ġt echn
actor ial
Ġcont ent
Ġpers onn
Ġtra v
f Ã©r
ab il
Ġaut res
ĠdÃ©velop p
Ġb inary
Ġc ou
pro duct
3 2
D ata
z e
Ġc r
ĠC or
Ġpar se
d ist
t otal
Ġmo ins
Ġpartic ul
] ))
Ġd ern
ww w
lay ers
Ġw rite
Ġc el
m er
m ap
ĠE lle
Ġ rom
ip p
Ġp ouv
Ã¨ res
f ix
aut res
ire d
f ield
Ġp Ã©ri
m d
h ost
", "
Ġsu cc
a de
di ctions
m ar
ĠC heck
ro s
ĠH T
Ġc urr
im al
ant es
z er
ud ent
S t
Ġa verage
P ro
s el
ro ute
N one
Ġse quence
m b
v i
Ġb ien
ang le
Ġs ize
Ġm ean
j et
Ġinteg er
n er
Ġp y
Ġc ulture
Ġma ke
Ġ2 5
F ield
l ong
Ġin cl
Ġb s
me an
D E
ĠC ette
F alse
(' /
rand int
ie ux
Ġpr ice
Ġdiv is
Ġjus qu
Ã© v
Ġc all
qu ent
Ġm id
2 00
ĠÃīt ats
} ,
Ġd f
ex ecute
Ġc as
ar ies
tre e
Ġprem iÃ¨re
Ġr ap
Ġd b
im it
Ġs al
Ġn ext
cept ion
p ython
ĠR Ã©
Ġc alcul
ĠÃ© l
S e
A L
p ost
model s
ĠN ode
ck et
Ġ ext
ci i
Ġt ri
st at
Ġpl ace
Ġcap it
ĠreprÃ©s ent
Ġpro p
Ġre v
Ġthe ir
ĠW orld
Ġto ken
Ãī t
plic ates
ro l
is es
od y
re quest
et er
Ġf l
ac es
ouv ent
pre d
p op
Ġs ci
Ġg rande
key s
ic le
Ġsc ra
Ġro y
Ġmer ge
is tr
ed ian
d oc
Ġl i
Ġc lo
Ġactiv ation
ĠdÃ©part ement
ser v
Ġstr uct
Ġenc ore
Ġv o
uer re
te ct
Ġ> =
a w
Ġn ord
il les
ph ab
Ġpos ition
ĠJ ean
Ġcon tr
ol s
ais s
---------------- ----------------
k eras
Ġg roup
3 0
Ġf ort
pl y
comm on
m on
Ġb ut
Ġor ig
un d
ing s
ĠD river
k ens
ord s
Ġpolit ique
ens ion
Ġex ist
Ġim plement
Ġs itu
id es
ac he
Ġnou ve
se quence
" ))
Ġor gan
Ġt k
Ã© ra
ĠA p
ci al
Ġf loat
ograph ie
1 1
Ġs ource
ais on
Ġl ast
all y
Ġper form
Ġlist s
val id
ur al
t a
pend ant
Reg ression
Ġd ro
Ġp u
Ġ ident
g roup
Ġ1 6
Ġto p
c al
Ġdat etime
{ }
Ġre qu
as h
C T
Ġcons id
Ġf lask
Ġl at
g ative
g re
Ġdef ault
ĠDe f
Ġg ame
ĠCon struct
v es
Ġc ro
Ġle urs
iÃ¨ me
Ġare a
Ġg ouver
re place
Ġf requency
op h
ĠdÃ© f
Ġcol le
Ġter rit
ul l
Ġav ant
1 5
Ġt ag
Ġcom pt
Ġf ond
Ġso it
g ra
Ġs ouvent
ct u
Ġcont ains
Ġc ur
Ġr ad
con fig
sh ape
Ġ Z
a ur
Ġv er
er ence
R es
Ġch im
Ġ- =
Ġc re
em per
ĠF unction
Ġ* *
trans form
ĠU RL
as cii
Ġan ci
p ack
ĠIm plement
Ġmat ch
Ġsu iv
f req
P O
Ġcom pos
Ġv ol
Ġpoint s
t emp
c urrent
l ink
at ique
se d
id x
Ġpart ir
se c
s u
Ġinter n
m od
Ãª t
Ġex emple
Ġit er
. __
d el
ap on
Ġ'' '
con om
at tr
Ġm ath
iv ement
et ch
ĠC ar
en v
or ig
Ġat trib
dit ions
c ursor
J ohn
f ois
an e
ot es
Ġc ir
el p
Ġfor me
Ġh and
els ius
Ġl Ã©g
Ã¢ te
cend ing
Ġfe atures
ĠP re
ĠQ u
a ume
or y
Ġj ou
fe atures
Ġadd ress
################ ################
E x
n ent
Ġth Ã©
el ements
Ġup date
Ã »
A B
g es
Ġtw e
Ġs n
et work
t d
Ġf actorial
le v
D ense
Ġpr Ã©c
Ġy our
Ġbo ok
Ġqu ick
Ġ3 0
Ġacc uracy
Ġc ours
ap t
Ġem pty
Ġg en
Ġus ed
b ack
yp es
b ug
m ing
Ġposs ible
Ġc ell
Ġt it
Ġcom bin
u ve
Ġm ort
Ġle arning
U T
re c
res pond
1 7
Ġk eras
ĠAr t
{ '
ĠU ne
Ġline ar
Ġre f
1 6
E lement
r ent
ic les
Ġg u
Ġ --
Ġma j
Ġweb site
)) )
s ol
ate urs
Ġht ml
Ġm ot
b ot
ĠdÃ© but
Ġclass ifier
p at
vers ion
Un is
l ambda
if s
Ġrel ig
requ ent
ar es
ab l
Ġinst all
Ġbas ed
Ġf ibonacci
as se
ĠP l
igh b
g ment
Ġs iÃ¨
ĠL icense
Ġd p
po que
f ace
Ġpl t
Ã© ro
Ġd onc
Ġc ad
ol l
Ġmon di
phab et
ric s
T o
Ġn Ã©
pro p
. ")
Ġc ath
Ġlow er
Âł Âł
Ġcontain ing
a que
s y
Ġde c
le ase
Ġo dd
Ġdis play
di ction
orm al
Ġqu el
Ġma ch
Ġf ois
bo ok
c r
Class ifier
I C
1 4
h or
Ġcon fig
Ġc elle
Ã´ le
Ġnombre ux
Ġa g
res h
valu ate
ens or
Ġcan c
Ãīt at
ĠHT ML
ig it
ĠDef ine
[ -
ist ic
ĠĠĠĠĠĠĠĠĠĠĠĠĠĠĠĠ ĠĠĠĠĠĠĠĠ
clo se
r ate
ĠC alculate
Ġup per
us h
oc c
mall est
Ġ' ,
Ġcor respond
O r
on es
Ġlang uage
urop Ã©
Ġm ont
Ġro i
Ġdist ance
E N
Ġm e
Ġ19 6
ath er
a gram
y le
Ġh um
Ġapp el
N e
Ġt ask
tr y
ch ild
Ġin f
Ġmin imum
Ġsy n
e ff
en u
Ġto ur
ser ver
Ġmod ule
S ON
Ġser ver
Ġ( "
Ġmo y
ĠIn itialize
Ġstruct ure
Ġon ly
Ġsub string
t x
Ġtemp s
c heck
Ġcol or
Ġam Ã©ric
ah ren
Ġ @
he it
s pe
Ġin formation
Ġ' )
Ġb r
Ġcom pl
ĠC es
Ġto us
Ġy e
up per
Ġb est
9 9
Ġfil m
c reate
ahren heit
it aire
ptim ize
m ethod
w idth
Ġde tect
ĠÃ© v
add ress
inst ance
Ġrep resent
itu de
s v
ci es
: ]
ĠI ter
Ġlibr ary
' ):
Ġm Ã©t
char act
Ġprov ide
Ġsel on
Ġdoc ument
I D
Ġqu at
ĠÃ© conom
ĠprÃ©s ident
Ġlab els
ord er
Ġenc rypt
in al
Ġg ener
Ġst ack
Ġlang ue
acc uracy
Ġpouv oir
f low
s oup
Ġa ff
ĠA dd
Ġexp ression
ĠS ud
un c
Ġr en
Ġen viron
Ġparam eters
Ġins ert
Ġc ost
Ġintern ation
. "
Ã¨ te
: -
Ġn o
Ġthe m
iv ot
end re
Ġp et
Ġcar act
A M
l and
end ant
ine ar
Ġf am
Ġv owels
Ġb i
Ã©r ation
con nect
4 5
Ġ emplo
in f
Ġs ql
Ġmar k
w indow
Ġm al
Ġr aise
Ġa bo
Ġperm et
Ġjson ify
o ck
Ġs Ã©
Ġsu ite
c at
in ation
od ing
Ġdef ine
w o
an k
Ġfon ction
g rid
o i
vol ution
w are
P ar
and ard
v is
ĠrÃ© fÃ©r
e y
on om
ĠP our
our ces
Ġg o
iss ion
er r
ĠT est
p ol
t arget
ĠĠĠĠ ĠĠĊ
Ġn ature
ĠC a
ctor y
m Ã©
n p
r ans
ab it
ĠTra in
d igits
t p
Ġd est
ite d
au d
st em
Ġsto ck
') .
: ',
s ing
ĠpÃ©ri ode
n ames
Ġcel ui
Ġb uild
ĠB uild
Ġch r
long est
Ġpubl ic
Ġth en
fil ter
re lu
ĠN e
m id
at t
ier re
Q L
iz ation
d ire
or n
it ions
ĠS h
b ar
Ġf it
im age
pl ac
um er
Ġpro f
Ġr Ã©c
av a
ĠP r
! ")
Ġ esp
Ġc ustomer
il s
bo x
Ġperm ut
Åĵ uv
ass ert
os s
n ot
c ost
iv al
Ġcom pr
ple x
Ġpar ent
Ġfil es
Ġe uropÃ©
ĠV al
stat us
ĠM ake
pl ayer
ĠS el
ud es
1 3
A S
Ġh istor
Ġs plit
00 00
Ġt ake
ent es
Ġc uis
Ġqu ant
Ġmach ine
g en
Ġn ive
sc ores
col umn
a Ã¯
en nes
ar m
ar ity
il es
ĠS plit
ight s
Ġbas ic
[: ,
Ġs ame
ĠC an
token ize
f irst
up le
ob j
w args
Ġpat tern
sel ection
c d
re move
rou pe
2 1
m ine
Ġl ieu
ut f
ye e
V ectorizer
Ġs i
ra di
Ġgouver nement
ĠIter ate
em bre
ail s
ĉĉ ĉĉ
f s
Ġcert ains
st ack
our d
un ctu
ĠJ SON
sh ow
point s
ĠdÃ© m
eth er
d im
ail le
comp ile
Ġcin Ã©
q r
Ġnouve au
Ġc ategor
al ance
enc ode
Ġreverse d
D e
Ġ u
Ġam ount
Ġcomput e
ye ar
aiss ance
Ġf ont
iqu ement
Ġconst itu
ic ient
ers on
user name
str ip
x x
Ãª te
des cription
Ġlab el
publ ique
Ã¢te au
Ġh elp
ouv elle
er g
Ġm ill
Ġm ore
ĠfranÃ§ais e
Ġh aut
Ġgre ater
P ython
} )
re d
om me
Ġ1 3
Ã©ri eur
fil ename
b ody
Ġf ield
Ġsn ipp
Val ue
o ff
p th
line ar
ĠL inear
Ġof fic
gr ic
ne ction
Ġsyst Ã¨me
quent ial
f loat
u y
Ġpos itive
F r
re verse
an de
ĠA m
= (
r ange
Ġus ers
Ġb ou
Ġap par
Ġan agram
Ġdis trib
S ort
b all
ment s
Ġd ou
Ġcl ient
ĠdÃ©velopp ement
Ġcount s
Ġser vice
f unction
Ġqu est
L O
alle d
Ġtrain ing
Ġla y
ard s
u el
Ġm edian
4 0
) -
Ġan t
stru ction
Ġg uerre
port s
t op
Ġ ed
Ġ5 0
A N
Ġ'' .
Ġcomm er
') ,
u c
aÃ® t
S I
ĠÃ© lect
s ource
ĠÃ©t aient
Ġf act
Ġto ute
def ault
Ġ< /
Ãª tre
Ġarg uments
pat tern
( __
n ess
ĠC ount
lob al
ent re
ve ctor
Ã©ri que
own load
i um
Ġpar ser
Ġquat re
r at
ĠP h
Ġdes cription
ĠS o
g enerate
ion n
Ã©r Ã©
fr ame
b res
en ant
Ġtra dition
sent iment
Ġdel ete
l etters
fe ature
wh ile
c ap
00 0
f l
Ġc al
Ã¢ t
so ci
Ġa x
it ch
3 3
e k
Ġf aire
ou is
ĠF ind
ĠO ptimize
f ul
Num ber
Ġmodel s
Ġsim ple
G ET
im at
plot lib
o int
Ġa ction
Ġset s
Ġvari ables
ĠLo ad
om ial
ub ble
Ġdiv ers
Ġwh ether
ins ert
Ġdire ct
Ġf em
ĠF ran
Ġav ait
Ġf er
Ġpre dictions
id s
min istr
Ġsnipp et
T ree
Ġf req
ĠprÃ©s ent
Ġs quare
Ġoptim ize
M ax
ur b
C on
c ategor
g ame
Ġcommun es
I S
h and
r Ã¨s
w er
un ique
Ġe qual
es se
Ã¨ g
Ġsql ite
t ask
Ġch ild
Ġrow s
Ġav oir
g n
l ast
l ines
i elle
ĠU se
Ġ ess
Ã¨ de
t f
x ml
Ġde ven
F ile
ut ions
iv re
Ġ4 0
Ġnombre uses
en gth
Ġ" ))
Ġsyst em
ex tr
Ġse ule
Ġpr iv
er ie
Ġvari able
Ġsup er
s ys
Ġt Ã©l
Ġdiff er
r c
it ies
Ã¨ le
ph er
ip el
PO ST
em bl
ĠÃ©t ant
Ã¨ nes
ong o
Ġ' .
Ġm ode
[: :-
) +
g o
Ġil s
Ġrest e
================ ================
dist ance
Ġnation al
Ġnive au
c a
o urn
as ter
Ġlibr aries
A m
Ġp air
us r
charact ers
f Ã©
Ġp ivot
Ġto u
ĠĠĠĠĠĠĠĠĠĠĠĠĠĠĠĠ ĠĠĠĠĠĠĠĠĠĠĠ
lab els
orig ine
cl f
Ġarg ument
iv id
Ġh ost
Ġaut re
Ġcompt e
) ;
S ER
l a
Ġl etters
Ġ{ "
au c
Ġdev ient
Ġcolle ctions
h ello
en n
Ġs ing
Ġ1 4
Ġth ree
lem agne
Ġc y
ens emble
ĠL og
Ġpeu vent
char s
$ $
param s
he d
ow er
Ġmo vie
M ar
ĠÃ© qu
h at
r ice
en cies
ĠCon vert
o ok
s end
Ġl itt
Ã© qu
are a
loc al
Ġn ames
Ġre tr
urop e
n ing
opul ation
ĠG iven
F or
Ġmat plotlib
Ġs mallest
ĠĠĠĠĠĠĠĠ ĠĠĠĠĠ
g ing
Ġt emper
Ġpre v
Ġsol ution
e au
at ch
Ġg raph
im g
2 2
o x
Ġp alindrome
Ã¨ mes
par ent
Ġterrit oire
D ict
d iff
ĠĠĠ Ċ
ĠS et
r am
Ġopt ions
h ui
u di
ur ent
ist er
Ġcuis ine
Ġ" __
j ourd
er c
Ġkey s
ic i
Ġet c
ĠL iste
ĠLinear Regression
at if
Ã¨ se
sub string
Ġquel ques
a ul
or itÃ©
ĠC al
Ġw indow
f requency
Ġs ens
Ġch aque
Ġcent re
Ġr ender
E D
Ġc i
ou d
aly zer
N B
i ra
im in
__ )
Ġfunction s
Ġ &
__ ":
Ġche z
unctu ation
Ġp res
Ġc rit
op en
ma il
ĠC ode
ĠL ist
Ġcomp are
N U
Ġrequ ired
y ant
Ġque ue
m ost
e ven
Ġse en
.. .
d om
Ġc ult
Ġye ar
d en
ist ique
ĠdÃ© p
ĠCom p
Ġca fÃ©
Ã´ te
Ġ ]
al ys
gr Ã©
ĠN otes
Ġhe ight
i pe
ur ation
if i
d jango
er v
z z
Ġenc ode
a ff
Ġd igits
er ies
Ġde ter
4 2
S um
Ġf ig
Ġm ouv
se ction
Ã¨ rent
ad er
abil ity
ay es
'' '
Ġincl ude
Ġfe ature
it ution
ĠdÃ© cl
ĠC ounter
Ġw idth
Ġtro uve
Ġt ensor
Ġp resent
pl ate
count s
ĠChar les
Ġspec ified
Ġdonn Ã©es
ib les
col or
Ġc ase
field s
om b
ft ware
mp ire
Ã© pend
Ġ error
Ġn ouvelle
ett es
f ibonacci
Ġf ran
cess ary
U R
il i
Ġcont act
iss ement
ien nent
u f
Ġl imit
le x
Ġj u
auth or
ĠgÃ©nÃ©r al
Ã©s il
iss ance
lat ten
ĠCa en
O T
Ġp ack
Ġocc urr
I L
he ight
Ġser ies
d am
n a
Ġpr Ã¨s
ub e
ĠG ener
Ġter me
Ġeff et
act iv
C ont
Ġch Ã¢teau
Ġser v
T ext
Ġp endant
Ġin itial
Ġdiffer ent
" ])
8 0
to ut
mat ch
le vel
Ġto urn
Ġpro b
Ġcom b
ĠN ord
Ġst udent
Ġsp Ã©
ĠY ou
ĠF or
' t
d ay
se il
Ġprodu ction
app le
] +
ĠL ouis
ĠG u
Ġent er
Ġlo ad
I I
T ype
ex ist
Ġje u
C O
ĠC ol
iÃ¨re ment
RO M
t s
de bug
Ġj ob
Ġspec ific
Ġhigh est
m ode
p en
mo v
Ġcontin ue
de c
ĠĠĠĠĠĠĠĠ ĠĠĠĠĊ
C ol
ed ia
Ġcont ext
9 0
ra b
ĠA ut
umer ate
n ow
Ġre place
Ġw as
Ġcom plex
Ġpl an
Ġsu ch
g raph
Ġs w
Ã© poque
c ore
er a
ĠS ort
Fr ame
l etter
Ġp al
us ion
Ġb ar
loc ation
dat aset
} ')
in Ã©
ĠA N
Ġh abit
Ġdivis ible
g h
Ã©t ique
Ġs av
Ġn etwork
ol es
du plicates
Ġdire ctory
tx t
t he
Ġa yant
Ġh y
Ġ3 2
com e
] ])
h istoire
g s
Ġc le
Ã¢ ce
onom ie
H O
Ġb ot
Ġen umerate
id f
ang uage
onn ement
ĠÃ©l Ã©ment
k wargs
as es
cl ient
Ġhas h
Ġtensor flow
( -
Ġb lock
we b
view s
er ne
or gan
ern es
a verage
i ellement
Ġv ert
ĠD ata
Ġ19 5
Ġscra per
Ġc iv
Ġg roupe
Ġv ector
Ġse c
Ġst op
pon s
Ġcolumn s
Ġr Ã¨g
'] .
comm and
0 1
A D
am ples
ĠChar lemagne
Ġb ack
ĠI s
Ġmo ve
Ġto kens
ĠS on
ble m
l s
ri e
= [
Ġst ate
dat etime
L e
qu ares
le ction
ul aire
ou est
du it
Res ult
ighb ors
n o
Ġwh ere
fr ic
C om
I M
a f
b lock
p opulation
y pt
Ġs end
ces se
Ġbo th
A P
y m
ct eur
Ġpar fois
Ġinst ance
ĠÃ©conom ique
A p
Ġal phabet
Ġat t
Ġperm ett
Ġlink s
. """
Ġin v
ĠU sing
Ġ entr
Ġb el
ib il
plic ate
S ub
Ġdur ant
2 4
: ")
Ġc v
Ġre cher
ist re
Ġabo ut
qr t
Ġse pt
po ch
Ġfil ename
ĠIm port
if ique
âĢ ¦
Ġne cessary
ab el
Ġwh en
ĠA prÃ¨s
Ġas soci
Ġsoci Ã©tÃ©
Ġnation ale
radi us
s est
ag er
ang es
Ġwith out
Ġs ou
T est
at bot
id Ã©
Ġe qu
Ġim age
Ġcanc er
Ġp rix
Ġlang ues
sp an
- %
ĠM ais
arg ument
e b
it al
Ġen g
ri Ã¨re
di ctionary
py plot
Ġmulti ple
Ġparticul ier
M at
Ġv i
Ġdo it
Ġsy mb
Ġpers on
ĠSel on
r ist
ĠÃ© p
Ġclass es
Ġex ample
u Ã©
ver y
ert y
. ,
Ġprovide d
l ayer
Ġc alled
ar ge
que ue
Ġcaract Ã©r
# !
C H
el if
ĠE l
Ġaut om
ĠCom m
ĠCount Vectorizer
6 0
ĠP ubl
ĠB el
Ġex iste
Ġne gative
Ġpermut ations
! "
c opy
an y
um ps
w ard
Ġpr im
o ther
p alindrome
t il
ac cess
ĠE dit
ĠIl s
Ġanagram s
is er
Ġclass ification
Ġrap port
Åĵuv re
c ar
Ġl igne
Ġfa Ã§
T ime
qu ences
Ġm es
alys is
. ')
ph one
Ġcommun ication
L ength
o ol
Ġdes s
Ġcor rect
S tr
Ġsol ve
Ġsucc ess
Ġj our
Ġaut hor
Ġacc ess
ĠRe ad
Ġac cept
Ġd Ã¨s
de v
ĠĠĠĠĠĠĠĠ ĠĠĠĠ
st d
Ġau gment
Ġst yle
opt ions
process ing
Ġident ify
e vent
s ide
en g
ĠT rans
Ġun ivers
comm it
ĠcinÃ© ma
E ST
o ptim
is Ã©
ch ange
In t
Ġtemper ature
I d
Ġe vent
Ġne ed
Ġcomm une
Ġtra vers
Ġobject s
Ġroy aume
ipel ine
is Ã©e
up date
Ġex tr
ĠSe quential
ex es
Ġth read
ĠPro gram
E X
i ale
ad es
Ġprogram ming
to kens
Ġgrand es
Ch ar
o e
Ġ( )
put e
In put
Ġpersonn es
auc oup
in ce
t we
u il
con de
E Y
s al
Ġob j
Ġd igit
Ġcol on
du ction
7 8
Ġs ample
Ġart icle
Ġsing le
Ġt ant
Ġc sv
de vice
ĠS a
ĠrÃ©g ions
N ode
l argest
r u
s ql
Ġc opy
ie ve
ir d
p us
he ap
Ġto utes
Ã©n Ã©
Ġph ys
Ġvis ited
Ġmerge d
u ples
Ġa fin
Ġpr at
en viron
Ġtra it
row s
H T
Ġs Ã©rie
un ic
em b
Ġres pect
ic a
Ġprodu its
cor rect
Ġchim ie
il oc
ĠI t
Ġfil ms
Ġuser name
Ġc Ã©l
Ġcon nect
uff le
Ġcir c
if orn
bin ary
Ġgrand s
Ġscra pe
h ref
load s
k s
u elle
ro und
qu el
ĠN um
D B
a i
Ġso ut
ĠO r
iss ing
a ill
b it
ĠA insi
ĠR andom
S S
Ġf ace
Ġm Ã©d
Ġim p
Ġ{} ".
Ġgr Ã¢ce
a j
Ġre conn
ri er
Ġass ert
in omial
Ġd jango
ro py
im ents
Ġr Ã´le
ist ance
Ġch o
arg v
Ġacc ord
s ession
Ġen v
Ġv illes
ĠB l
ĠgÃ©nÃ©r alement
j ours
l ing
o ve
Ġde t
se q
ch im
s ample
Ġth ere
Ġcath ol
c ell
Â «
Ġimport ant
IN G
Ġtradition n
S et
an ana
Ġ[ ],
Ġou v
Ġht tp
Ġfr ont
Ġcou le
Ġs ide
al s
Ġj apon
pro ject
Ar ray
Ġfl ag
A ut
t ed
([ [
A frique
u its
Ġsur tout
H e
Ã© p
Ġpr ices
Ġtechn iques
I ON
Ġn ormal
Ġw orld
Ġv iv
od d
Ġis instance
C D
c all
p air
Ġd yn
ĠS y
ab s
du ce
ranÃ§ ois
ivers itÃ©
t wo
Ġf requent
#! /
U L
c ast
Ġt imes
Ġc at
al og
pr im
Ġcons omm
LE CT
Ġmet rics
m ut
Ġw rit
Ġ19 4
Ġinf lu
Ã «
it aires
ic on
int e
Ġ20 10
Ġc md
Ġ' /
Ġrom an
gra de
Ġhand le
t ing
tr ang
Ġpro blem
b r
h igh
Ġm is
om in
Ġpl up
Ġmar qu
Ġplup art
Ġt ard
Ġv ectorizer
Ã©r ature
pos it
aut Ã©
ĠJ ava
Ġsel ect
Ġmondi ale
" ],
al f
ĠDe puis
el y
om mes
st op
Ġph one
Ġprincip alement
Ġdern ier
ĠĠĠĠĠĠĠĠ ĠĠ
Ġar m
Ġse ul
Ġcapit al
Ġl et
Ġg Ã©
Ġpro m
Ġpro t
id er
Ġprem iers
ĠReturn s
T h
Ġm arch
am ount
ist iques
Ġcon nection
Ġtit re
ic ally
Ġ( ),
ĠS er
ĠrÃ©fÃ©r ences
g u
ĠG rand
pre dictions
read y
Ġreg ression
* (
ert ies
2 3
o ires
Ġv ale
Ġel les
" >
Ġ Ð
Ġf rÃ©
ĠM ult
re en
* -
Ġ ?
st er
ĠD i
ic s
Ġrec urs
f ore
Ġcon ditions
Ġz one
D O
Ġl arg
Ġc art
AT E
Ġs ome
ap rÃ¨s
util s
ĠmÃ© di
Ġlay er
b uild
Ġw in
ĠM ont
ign ement
Ã©t Ã©s
re l
Ġp ad
el e
ic ro
Ġlower case
b alance
Ġbe aucoup
s im
Ġt ypes
Ġc Ã´t
ens ions
I B
ĠM y
requ encies
SE LECT
Ġnou vel
ĠI D
Ã©d r
Ġquest ion
Ġdeter mine
! ')
Ġp lot
ent iment
ĠG e
iss ant
Ġim pl
fil es
Ġ100 0
7 0
Y ou
Ġfind s
P AT
} ")
ph a
Ġc ustom
Ġch ange
Ġal low
ES S
ĠcrÃ© ation
Ġen f
Ġsup port
Ġsim il
Ġs ite
ĠC rÃ©
ex cept
ĠF ROM
Ġau jourd
Ġed it
d own
ord in
Ġcom par
ĠÃ©c rit
Ġrad ius
d ent
j ob
n t
ĠP ierre
g ress
Ġpro c
Ġce ux
b as
ith er
Ġrec ord
ĠGener al
ĠM ich
Ġ- *-
Ġind ustr
Ġopt ion
it ation
Ġm ust
um es
Ġas cending
su ite
ĠLog istic
b ject
el per
Ġre ce
and ler
Ġpe int
Ġind ivid
Ġtrav ail
sec ret
Ġa ur
Ġt aux
se au
Ġof f
ad ata
Ġst andard
Ġcert aines
class ifier
sc ript
Ġorig in
Ġ urb
Ġis s
Ġdev ice
Ġmulti ply
au v
In dex
12 3
ĠBr Ã©sil
tem plate
Ġutilis Ã©
vi ous
Ġa f
ut r
ĠG NU
og le
olog ique
Ġ} ,
Ġlink ed
Ġli ke
Ġmouv ement
ĠMult inomial
s g
t om
ĉ Ċ
Ġ es
Ġ2 8
Ġcol lect
Ġcor ps
Ġdu plicates
M odel
ous e
Ġtri angle
. *
Ġc ursor
Ġf ix
and is
Ġqu art
c md
ig r
Ġce pendant
d le
Ġl im
Ġfilter ed
ĠRÃ© publique
Ġtou jours
r im
v ar
ann Ã©e
g est
i ro
s qrt
Ġl arge
Ġre main
Ġ2 4
Ġj ours
p unctuation
in ois
Ġnum er
ag it
ĠCe pendant
ĠPubl ic
s quare
Ã© ch
ĠS i
Ġh ere
Ġe very
Ġne ural
ĠAn d
Ġax is
f requent
g in
x y
Ġm en
ĠR ob
ma ke
Ġsh ort
Ġche f
but ton
Ġj ourn
Ã©r it
Ġsc ores
Ġtrans form
. '
o ine
al itÃ©s
Ġn odes
Ġm ois
aut re
ĠJ ac
Ġcap ac
er re
ap s
our g
") .
ĠU p
Ġ8 0
Ġab s
ĠdÃ©s ign
Ġcalcul ates
3 7
ut ton
il os
Ġen s
Ġun der
Ġal ready
Ġaut our
3 6
ust ers
( {'
I m
et a
ra Ã®
ĠJ apon
Ġ200 0
O P
c ity
d river
Ġin cre
il y
Ġor ient
oy en
d o
Ã ¡
er m
Ġf ast
us ter
Ġfam ille
Ġ' --
bo se
row n
Ġspe cial
Ã©rie ure
) /
A ss
U N
ĠA s
mi um
ĠVal ue
" ):
U ser
f unc
de pth
Ġb ret
Ġg lobal
op e
Ġpr imes
Ġcin q
Ġrap ide
poch s
c ustomer
d s
Ġl ambda
Ġc amp
st ock
ĠM al
ĠÃ© lev
Ġlog ging
Ġmon th
Ġoutput s
ĠthÃ© or
g ique
n Ã©
Ġm ise
Ġw ork
ĠI NT
ĠÃ©t abl
Ġsort ing
Ġat te
Ã¢ tre
Ġann Ã©e
Ġcapit ale
Ã» t
ĠMultinomial NB
a e
d ing
s ign
Ġs ix
pt ion
Ġdo es
at ives
ar a
Ġf etch
un es
lo ss
vir onnement
Ġa gric
Ġm or
ra it
ĠM od
Ġpre diction
ĠPl us
Ġb ois
Ġcon str
ĠprÃ©s ente
Ġcorrespond ing
A cc
f etch
m it
ul ar
ge x
': '
Ġdiff ic
ĠCl ass
h um
ab c
iss ent
H ER
S cript
Ġp iÃ¨
ul ation
ad am
Ġch atbot
R A
m ary
it iÃ©
Ġap pro
p i
et ing
if t
Ġan gl
ch Ã©
pr ices
ĠâĢ ĵ
F ibonacci
K EY
o ver
Ġ ):
Ġn at
Ġ" \
ap er
Ġe ither
Ġman iÃ¨re
U RL
im est
ĠR es
opt ion
ĠCor Ã©e
N o
e ded
Ġt andis
is se
Ġ" .
ĠÃ© le
ms g
extr action
t ypes
qu ant
Ġch ap
Ġma int
ĠJ e
Ġattrib utes
H andler
ĠC el
Ġentre pr
Ġposs Ã¨de
] ):
b ert
c ur
ur Ã©
ĠC ert
ex ic
Ġinput s
ĠU ser
Ġ20 20
Ã® le
Ġconn u
by tes
I tem
h as
l in
u cl
and id
Ġdi ction
ĠPar se
l Ã©
ĠS QL
Ġsu ff
ĠcafÃ© ine
or ation
qu elle
ĠM on
Ġsh ow
Ġint Ã©
pect ed
sal ary
p ace
Ġg cd
Ã¨ tes
ĠA I
ien nes
ĠEx tract
Ġess ent
S er
ask et
ĠdÃ© fin
Ġcar b
Ġ201 1
Ġ ì
Ġf ais
Ġsa ve
alis ation
publ ic
E qual
S V
h y
Ġla quelle
ĠA d
Ġcol l
Ġeff ect
Ġpolit iques
in ct
am ent
ĠA S
ais ons
so ft
Ġdoc uments
Ġext ernes
For est
K ey
Ġr end
iv er
exp ression
ĠdiffÃ©r entes
it ue
Ġan im
art icle
Ġad ministr
ĠdiffÃ©r ents
ĠArt icles
n et
en ir
as ets
Ġ' -
Ġ6 0
In st
Ġmulti plication
Ġgra de
l imit
ĠC lo
Ġ" +
ĠS entiment
Ġgre at
Ġcomput er
ĠLogistic Regression
Ġin itialize
un k
ant Ã©
Ġcl f
Ġsal ary
Ġclo sest
Ġcle an
Ġcon serv
ĠH istoire
Ġfil s
ille urs
An d
Ġrest aur
Ġchar s
Ġlong ue
Ġ200 7
D I
d et
Ġt els
Ġm ass
ation al
ib l
Ġimport ante
Ġprem iÃ¨res
Ġcert ain
ĠCal iforn
Ġs em
Ġp ush
Ġj ust
to ols
Ġsp Ã©c
Ġparam s
" ),
d rop
r ase
Ġch oice
ĠBr ux
at oire
Ġm om
Ġr aw
end s
ograph ique
mod ule
c ros
Â °
Ġse par
D ir
P ath
if est
Ġg al
arch itect
Ġtrav aux
Ġtk inter
) [
h ash
w d
Ġr ess
Ġb ubble
ir is
Ġch iff
'] [
man de
P r
ĠC ont
Ġ2 1
cl es
Ġemail s
Ġcath Ã©dr
Ġconn exes
Ġz ip
co ck
m Ãªme
v owels
us ers
Ġr aison
port e
Ġpro cesse
ĠÃ© ch
v ari
Ġf ib
ĠP er
Ġle vel
cl ude
Ġpr is
Ġal so
Ġe valuate
mo ire
Ġwe ights
Ġ201 4
del ete
Ġd ays
Ġn th
il ip
ess ages
pre fix
co le
Ġprodu it
Ġurl lib
C reate
on ie
Ġd im
Ġs te
Ġp op
Ġin fo
Ġm ut
ens ity
Ġ201 2
Ġ201 5
Ġloc al
Ġgu ess
S QL
s ur
Ġf ra
sent ropy
ana gram
ĠâĢ Ķ
Ġserv ices
ĠBrux elles
U S
d est
r ating
u ver
Ġl oss
ĠC ro
Ġpro ject
lo op
te il
ĠĠĠĠĠĠĠĠĠĠĠĠĠĠĠĠ ĠĠĠĠĠĠĠĠĠĠĠĠĠĠĠ
": "
Ġcheck s
Ġlo i
Ġencrypt ed
itch cock
A t
M essage
Ã ³
Ġf le
ĠS c
inst all
( ['
al iste
ut ed
Ġ[ (
ĠV oir
Ġaut h
object s
ĠNe w
ĠdÃ©m oc
Ġdet ails
t ings
Ġ ill
Ġc oding
Ġre Ã§
Ġcon dition
Ġmod Ã¨le
Ġbook s
Ġcad mium
3 5
E mpire
P lease
g ent
in a
se cond
ĠM oyen
)) ,
list s
Ġpr end
Ġ199 0
Ġdire ction
Ġmil ieu
s rc
ro po
Ġo ld
Ġpro pos
ĠIn put
An alyzer
Ġdro it
Ġcal end
0 5
c urr
ro t
Ġpar mi
ĠD Ã©
ĠF ranÃ§ois
ĠJ ohn
sum er
Ġproduct s
Ġupper case
Ġci pher
ĠRandom Forest
7 5
ĠM us
Ġt rue
Ġpro bl
ĠA b
Ġ2 6
Åĵ ur
Ġprop ri
= {
j Ãł
ĠL ib
Ġpro jet
Ġpl ay
ens es
gl ish
Se arch
eff icient
I P
ra in
ile d
Ġe pochs
Ġgre c
M A
m t
Ġm ol
ĠL iens
ri es
ou vert
Ġlist e
Ġser a
19 9
Ġ200 9
ĠEx ception
Ġoper ator
resh ape
O f
Ġsent ences
Ġdom aine
Ġrecher che
cros sentropy
D F
Ġcon struct
av or
m and
we ight
Ġfem mes
ĠspÃ© ci
PAT H
8 8
l am
ent ion
ĠD ense
Ġmus ique
cent er
ĠCrÃ© teil
( {
i j
ĠT ext
Ġpar c
aut e
Ġcombin ations
en e
ĠÃ ®
ĠB ar
Ġcour se
assert Equal
c m
ĠĠĠĠĠĠĠĠ ĠĠĠĠĠĠ
Ġb Ã¢t
ex it
id ence
Ã© mat
ra ge
Ġse in
Ġres pons
con f
Ġk n
Ġob t
Ġnouvel les
ĠP ort
ĠP aul
Ġdu plicate
op le
Ġus es
Ġex pl
Ġex ec
Ġfact ors
ĠCh ili
Ġmat Ã©ri
Ġph ilos
Ġaf ter
: %
A PI
F I
l anguage
p u
Ġc ounter
ĠĠĠĠĠĠĠĠ ĠĠĊ
we ather
gl ise
Ã© an
Ġf ab
Ġret rou
p es
y l
is hed
Ġan other
Ġle ast
Ġpro gress
'] ]
Ġart icles
z y
Ġ" /
Ġen suite
Ġap part
Ġoper ation
Ġmil itaire
prop erty
m n
ĠP art
ĠÃ© trang
au che
Ġpre vious
Ġcontin ent
mer ge
m ulti
Ġf ac
am bre
ĠL ink
ĠM art
ĠĠĠĠĠĠĠĠĠĠĠĠĠĠĠĠ Ġ
Ġ200 8
Ġsci ent
resh old
+ =
ĠÃ© d
ĠCh ine
log in
ĠreprÃ©s ente
div is
\ .
Ġin it
im ag
ĠA t
Ġprogram me
pos itive
rap per
ĠeuropÃ© enne
o it
Ġd ay
Ġan alysis
ĠH itchcock
ĠV i
Ġchr Ã©t
ĠfaÃ§ on
an che
as c
Ġdes cending
Ã¨ ve
Ġpr atique
100 0
Ġgroup es
ĠUp date
Å į
Ġl ines
Ġp ur
pr imes
ĠĠĠĠĠĠĠĠĠĠĠĠĠĠĠĠ ĠĠ
Ġtechn ique
Int ensity
c elsius
Ġd onne
as ing
Ġan aly
ĠM in
ĠI N
Ġdeux iÃ¨me
Ġrec ords
w ise
ot s
mon th
Ġorig inal
, "
Ġv ar
iz ing
ud o
ĠÃ©lÃ©ment s
and s
num er
(' \
Ġe ux
ĠmÃ© th
Ġsucc Ã¨s
Ġmoy enne
Ġa fric
'] :
ĠdÃ© jÃł
Ġwe ight
Ġocc ident
Ġcolle ction
unic ip
ĠSentiment Intensity
2 8
H E
ĠCon seil
Re quest
Ġeff icient
met rics
b ound
w in
Ġc elles
com bin
Ġwith in
pre diction
Ġprincip al
a ctions
Ġs alle
ĠO R
Ġtra verse
Ġat tr
Ġ201 3
Ġans wer
Ġencode d
ĠSentimentIntensity Analyzer
v ing
al er
Ġg ar
ok en
Ġ9 0
** **
Ġoper ations
Ġmem bres
Ġanci en
Ġtwe et
Ã©pend ance
optim izer
5 5
B y
Ġ ),
Ġch ang
ail able
Ġ200 6
Ġtask s
b ers
se quences
ed ding
Ġi p
Ġ. ..
Ġkey word
ĠtÃ©l Ã©v
ĠValue Error
) **
O S
us age
Ġap i
Ġtro p
Ġca use
Ġfo ot
Ġconsid Ã©r
Ġ q
Ġmo itiÃ©
ĠCaliforn ie
r ices
Ġan g
Ġch amp
ud ents
plac ement
> "
b anana
c b
o gram
s up
Ġd ownload
um p
Ġ" -
Ġy ield
ĠH e
In fo
mar k
P L
f ect
er o
ur g
ĠF in
ib li
'] ['
Ġdi x
Ġtwe ets
rim oine
on al
re m
Ġm unicip
ct x
Ġo ur
ĠP erson
dis play
Ġretr ieve
ĠC ap
Ġest im
---- --
able ment
ĠCh rist
Ġ200 5
Ġz ones
Ġfr ame
Ġpair s
b t
Ġau c
av ant
ĠrÃ©s ult
Ġvo it
Ġdiction aries
u id
Ġd ir
ĠS im
con st
Ġfin al
Ġaut or
child ren
E urope
d og
h a
Ġb Ã©nÃ©
Ġ" %
di o
Ġcl uster
Ġst ores
Ġvie w
] *
c ision
Ã Ń
Ġm ult
st ore
ri or
ĠS tr
Ġlength s
Ġ18 0
'} )
Ġexist ing
Ġfield s
P C
g Ã©
i or
l ate
Ġc andid
ĠN ot
cc ess
Ġ20 19
Ġpopul aire
Ġprincip aux
Ġloc ation
Col umn
> <
I ST
Ġv ict
Ġent raÃ®
Ġcro issance
Ġdou ble
C ount
z ip
on y
Ġf urent
ĠS ur
Ã©c ut
data base
Ġst d
mp lo
Ġocc up
Ġver bose
Ġd on
Ġex ecute
result s
Ġspe ct
ann el
ĠamÃ©ric ain
Ġgener ates
3 4
p ip
ĠR un
ener ator
Ġso cket
aire ment
aÃ® tre
Ġdern iÃ¨re
Ġappel Ã©
Ġcategor ies
b ayes
Ġ $
Ġp Ã©t
im p
if ie
ĠD is
ĠÃ© col
A s
U M
Ġs ources
Ġs quares
qu er
ĠÃ© m
ĠF it
(" \
ter min
to col
Data Frame
Ġprof ession
d ot
Ġl um
Ġpro pre
ne gative
fic ie
ĠsiÃ¨ cle
( *
F F
d ays
Ġd og
le ep
Ġb atch
ĠS an
ĠR en
Ġx ml
Ġport e
err ors
ĠcÃ©l Ã¨
U P
f er
ur t
Ġn Ã©g
ing u
ĠC Ã´te
Ġ' {
ĠL ors
ĠG uerre
og n
sp ace
Ġinternation al
Ġbou dd
imest amp
C omm
I G
c ache
e v
p ass
Ġt end
pon ent
Ġap pe
du c
Ġim g
lower case
Ġcre ates
Ġenviron ment
Ġpal ais
Ġangl ais
g el
l ess
ĠP y
ĠÃ Ĥ
Ġles s
ĠB er
Ġcl imat
Ġap pend
av es
ense ignement
f ahrenheit
Ġd it
Ġc u
Ġde pend
ĠC D
Ġ" <
ĠM an
ĠrÃ© seau
vent ion
trib ute
Un ion
ĠrÃ©alis Ã©
rol l
Ġperform ance
ĠPre m
S ize
on ce
ut Ã´t
Ġ18 9
Ġfort e
N N
an v
Ġv oy
Ġcom ment
ĠR o
Ġus age
OR T
C S
d igit
el em
de code
enc rypt
iss ors
Ġstat us
product s
Ġcel a
filter ed
Ġseule ment
ĠBel gique
/ '
F unction
v m
is ant
im ize
am s
am er
ol it
ord re
url s
Ġter min
utr al
8 7
X X
b a
ch ain
Ġel em
ĠB os
ang l
Ġter re
ĠprÃ©s ence
ĠY ork
Ġsign al
post s
Ġiter ate
Ġdec imal
omin ator
A dd
c alculate
d umps
g ender
Ġn orm
ir m
ĠH en
Ġ201 6
f act
ĠP at
ex ique
Ġcon struction
Ġter res
Ġconc ern
Ġmondi al
LO G
' \
A ge
o ci
Ġa st
Ġn av
un it
Ġh ommes
Ġparam eter
'} ,
Ġhabit ants
B utton
c el
Ġp ower
Ġc raw
Ġch er
app ing
Ġsort s
Ġob ten
stru ctions
ustr ie
vector izer
t mp
Ġpl utÃ´t
Ġmod ify
cont act
Ġsitu ation
Ġmaj oritÃ©
categor ical
Ġfran c
s m
s ig
Ġd ot
Ġc et
Ġ( -
end ing
Ġ: :
iss on
Ġ201 8
ouver te
ĠmÃ© moire
aw a
Ġoccurr ences
Ġvale ur
Ġmol Ã©c
S cal
et ed
Ġ( Â«
ĠD jango
ĠG o
ick et
der r
Ġlat in
Ġgen re
hand le
f ol
he x
om s
Ġb rown
ul ate
st udent
ĠB ou
Ġse conde
Ġind ices
ĠÃĤ ge
G et
L abel
g ne
qu it
Ġre port
ic y
Ġan imal
Ġle quel
Ġv e
ĠG r
ĠE valuate
ĠrÃ© publique
Ġter ms
Ġcarb one
is Ã©s
ut ive
th Ã¨se
ĠL ang
we ights
In correct
ouv re
Ġimplement s
Ġtit les
sol ution
Ġemplo yee
' {
M e
in Ã©e
Ġp ot
an isme
us se
Ġv oir
ĠE urope
Ġro t
Ġ201 7
Ġcomp Ã©t
2 6
N A
W indow
ext end
olog iques
Ġexp lo
Ġculture l
b es
Ð ¾
on de
Ġd oll
Ġt uple
Ã© lect
Ġre d
ĠC elsius
ĠÃ© poque
ind re
ĠdÃ© b
Ġsy m
Ġdist inct
mplo yee
a ign
j s
ide o
Ġman ifest
Ġoptim izer
Ġcategor y
gric ulture
Ġjapon ais
Pr ime
ibli ographie
F rance
P h
` `
h er
n ie
w rit
ro ss
Ġb ody
our se
ĠI S
Ġse cteur
ĠsiÃ¨ ge
Ġcad re
3 9
6 6
C K
ul g
Ġg l
Ġw ould
Ġcon trib
ĠS V
Ġch inois
ĠrÃ© p
ill et
mo ins
rit ure
sp am
AL U
Ġtag s
Ġvi ol
ĠRob ert
O bject
Ġr is
Ġr ating
Ġv it
ĠM odel
pre processing
Ġsp am
Al l
Ġcontr Ã´le
Par ser
N AM
s ave
Ġre pe
Ġ2 2
ĠF ahrenheit
iz es
oun try
ĠN OT
Ġ- >
Ġat om
Ġim m
zer os
ĠcathÃ©dr ale
/ %
Ġs ession
at ter
id den
ĠS al
ĠF ont
mo vie
head er
IN T
Ġ198 0
local host
ilip pe
R eturn
tr i
Ġsecond s
ĠÃ©le ctions
e py
t ax
Ġd river
or Ã©
Ġf unc
Ġv ir
ag s
str ong
Ġname d
sent ences
Ġcour ant
Ġfo urn
pol arity
column s
Ġdistrib ution
! '
Ġt en
Ġf avor
est ival
Ġv ill
alis me
Ġlib ert
Ġ197 0
Ġdro ite
Ġnature l
dom ain
ibil itÃ©
8 6
S c
l et
r est
Ġt om
is ent
ĠM o
Ġ19 0
ress or
Ġgra di
ival ent
Ġa illeurs
Ġt Ãªte
Ġm ap
am a
Ġg az
Ġpro te
op er
ill i
iss ements
ification s
tem per
ĠLo op
Ġsymb ol
Ġm sg
ic he
Ġ' ',
Ġtra ck
Ġaccord ing
d ro
Ð µ
Ġs low
al phabet
as te
Ġg rid
ad a
ĠR oy
Ġmat ches
Ġtest ing
Ġoptim ized
Ġcir cle
" }
es e
Ġd er
re port
Ġc ity
Ġin c
Ġm Ã©c
em pty
ĠC opy
se z
Ġb in
ĠS to
Ġmin istre
In d
Ġhead er
Ġrelig ion
xx xx
Ġcommer ce
u ages
w ay
Ġ' %
iv ent
Ġch aÃ®
for me
per mut
Ġtext es
Ġcre ating
u est
Ġa ute
Ġc it
Ġf Ã©d
Ġthe y
Ġv idÃ©
emp ire
Ġdis par
fit ness
Ġnouve aux
prop ri
HER E
C A
E NT
Ġt ent
Ġs au
Ġm issing
Ġr ate
Ġ" _
ch a
ax is
Ġbut ton
Ġmoy en
Ġcoule urs
ropo ut
g ypt
n n
Ġt mp
Ġt uples
Ġs antÃ©
ĠP ays
Ġg ender
ed List
ac r
ĠD el
ĠB ibliographie
ĠR em
Ã´ ne
arm Ã©e
Ġmom ent
3 1
D es
N ot
Ã© on
ĠM ain
ĠR om
head ers
Ġdiv ide
Ġpubl ique
Ġmid dle
ĠrÃ¨g ne
Ġentr y
4 4
E M
W orld
t ual
Ġr iv
Ġw ant
ĠM e
Ġch ac
Ġma y
Ã©t end
ĠIn tern
util isation
Ġend point
ĠrÃ©g ime
'} ),
link s
G ER
Ġ ).
Ġf our
Ġn i
Ã©n ie
ĠCom pute
Ġfa ible
Ġhistor ique
Ġs port
Ġc arr
Ġb us
ĠdÃ© n
Ãª mes
rit ann
Ġ200 4
abil itÃ©
d ig
n el
r il
is ode
ct iv
ĠC re
Ġ200 2
Ġmod erne
ĠTh Ã©
ĠAp ple
sec utive
d ates
Ġt e
Ġs us
or ient
ĠC all
Ġg auche
ĠS tring
Ġqu al
Ġav g
ĠSt andard
25 6
Ġinternation ale
Ġabo ve
Ġfem me
ĠIs land
s l
and es
Ġh ow
ob el
Ġsub process
Ġpass age
] ),
f idf
w ik
Ã© en
ch o
ab ord
Ġe u
Ġpas se
Ġlang age
ĠcrÃ© Ã©
Ġfo x
Ġpy game
Ġtwe epy
Ġquick sort
book s
Tree Classifier
Ġphys ique
O utput
p in
Ġma Ã®
Ãª tes
ser vice
add ing
Ġdis c
Ġob serv
cont ext
12 8
] ['
l on
Ġp ages
Ġc ard
Ġo ct
Ġv a
ĠD oe
Ġso ftware
Ġcar te
ĠMar ie
Ġprop erties
Ġpet it
E L
j ets
n g
in formation
Ġl anc
Ġc ant
om p
ĠA vec
pl ays
ab b
Ġas sez
AC E
Ġ196 0
na ive
Ġnat ural
B ase
f actor
s amples
Ġc rypt
Ġf latten
tr a
ĠP ers
ĠM exique
ĠdÃ© t
Ġsub tract
set s
ĠFran c
I O
o Ã«
Ġp ipeline
Ġc os
ĠP al
st e
Ġv ue
ĠW e
Ġdi rig
Ġmat iÃ¨re
find all
ĠrÃ©g ul
Ar t
Ġprob ability
Ġaur ait
3 8
M y
y our
ĠT fidf
ĠM at
Ġph ot
Ġdev ant
ĠSe e
ron ique
Ġcr ise
Ġme ille
Ġbel ow
posit ory
Ġmarch Ã©
ordin ates
ĠpiÃ¨ ce
I V
m ath
Ġ Åĵuvre
Ġb alance
ass in
ĠsÃ©cur itÃ©
Ġacc ue
Ġrel ations
Ġconc at
Ġdro its
Ġsuiv ant
fetch all
Ġphilos oph
A G
h istor
v in
Ġp sy
Ġre mov
iv ed
Ġ2 7
Ġser ait
sp agne
IT Y
Ġparticul iÃ¨rement
ension al
attr s
Ġdec ision
Ġrapide ment
Ã³ n
ĠRandomForest Classifier
6 5
p are
w orld
x label
at iques
ur ant
Ã©r ations
ser ve
Ġbo x
([ "
Ġprov ince
Ġprincip ales
Ġread s
upper case
EX T
Ġp ens
pro b
ĠDe cision
tal ie
ĠprÃ© par
Ġtrois iÃ¨me
Ġtrait ement
Ġdoll ars
y label
Ġs at
Ġp Ã©n
Ã© ph
Ġb an
Ã¨ ge
id get
Ġro ute
ĠV ector
Ġmin utes
Ġadd ition
ern el
Ġph Ã©n
IN SER
comp ound
-------------------------------- --------------------------------
Ġciv il
Ġprat iqu
ĠMich el
M in
d raw
l l
n elle
n ormal
p erson
ur os
Ġfor Ãªt
ĠS T
Ġqu ot
app ar
Ġ200 1
cont ents
Ġsel ection
Ġcontin u
ĠCor se
ĠdÃ©f init
cap ital
categor y
ĠMod ify
M od
Ãī glise
Ġconf l
Ġsec ret
chim ie
2 9
8 5
I A
b us
d ess
k l
Ġcon qu
Ġcon cept
Ġ2 3
mo id
ft ime
Ġpost s
embl Ã©e
ĠAN Y
o od
t od
Ð ¸
Ġd ieu
al k
iss ions
Ġconst itution
a ide
m edian
in c
in v
re al
Ġh ist
ag ement
Ġap propri
ial og
Ġinter section
Ġlors que
met adata
AB LE
mÃ© di
Ġessent iellement
er ia
it ter
Ġn ow
am ma
Ġ4 5
Ġbe en
In ter
Ġmo v
Ġph rase
Ġcomp il
Ġrem plac
$$ $$
Ap ple
Ġremain ing
C R
a ie
s k
Ġr yth
od er
put er
me ans
clus ter
Ġsub ject
sh ort
ole an
ĠBr ive
Char Field
S h
v oir
Ġd one
Ġp or
ul pt
ci pe
Ġst ats
Ġcont ents
input s
Ġ7 0
temp s
ĠcÃ´t Ã©
ĠJac ques
Ġens emble
+ +
2 7
\ "
i ation
u cket
qu i
Ġre view
ĠS ci
Ġal iment
app ro
ign es
ĠCon st
Ġesp Ã¨
Ġenf ants
P ool
u zz
Ð °
is ations
ig ue
Ġun til
ĠM ac
ub is
Ã©r al
ore cast
ach ine
Ġform ation
Ġvalid ate
ĠPre dict
8 9
I t
b n
p ir
Ġd raw
Ġt ir
Ġde bug
Ġre ven
Ġfor mes
Ġch ois
ĠR EST
ĠW AR
ĠRe write
Ġ25 5
Ġexist s
D AT
ap plication
ĠIn st
Ġdiff erence
Ġutil ise
Ġdonn Ã©
Ġemplo y
inf lu
Ġrecurs ive
architect ure
A lle
E st
F A
W hat
k it
m ac
r ont
v ant
Ġc oup
Ġfor ce
ĠÃ© vol
Ġj am
âĢ Ŀ
ĠÃ©t udes
arch ie
Ġdis plays
Ġmem bre
Ġpack age
Ġequ ation
P E
S L
m ed
m enu
u ge
u ci
Ġf requencies
un iversitÃ©
ir cle
con vert
Ġact u
Ġoptim ization
Ġass ign
ĠSo ftware
Ġcart es
aps ack
duc ation
ĠFont aine
f g
l ic
per iment
Ġim ages
ĠdÃ©c or
ĠRe g
Ġad opt
yn c
aille urs
INSER T
A d
Ġin di
Ġ" --
ĠA ss
Ġpre fix
ĠÂ» )
ug gest
io th
Ġshort est
ĠCert ains
Scal er
B as
r ary
re am
ess es
Ã©c onomie
str ftime
exp lo
cor pus
ĠHT TP
ĠamÃ©ric aine
Åĵuv res
ĠÃ©qu ip
ĠvidÃ© o
" {
I v
a griculture
Ġ' <
ĠB o
Ġpl ats
ĠR ec
ĠÃ©t udi
Ġ{} '.
Ġout re
Or der
Ġesp agn
ALU ES
8 4
Ġp an
ĠT O
ĠS w
ĠM ax
ĠrÃ© v
ip edia
emp or
Ġ6 4
ĠINT O
Ġa up
ĠB ern
ĠAr m
ĠEx ample
AR T
Ġquest ions
bt n
d type
ar c
Ġn aissance
ĠÃ ¢
sh uffle
Ġad apt
twe et
Ġcathol ique
V ER
s w
Ġm ari
ĠS te
Ġpl at
Ġpl ac
Ġdef in
Ġmon tr
Ġutilis Ã©e
Ġp Ã¨re
Ã© h
is c
ur er
ro is
Ġr ich
Ġpro che
ac ity
gram ming
Ġal tern
ĠN obel
con nection
ĠĠĠĠĠĠĠĠĠĠĠĠĠĠĠĠ Ċ
Ġsa int
ĠPar mi
Ġdat asets
ĠmÃ© dec
45 6
Ġfit ness
Ġsept embre
U I
Ġl y
ĠO F
sc ale
Ġconsid Ã©rÃ©
uil t
, -
P R
m agne
p tr
Ġa j
Ġl ut
Ġre ct
ind ustrie
ĠdÃ© pend
Ġacc ount
Ġappel Ã©e
Ne w
ster dam
/ <
O L
i as
t it
en o
el come
Ġm Ã©l
ĠP e
Ġne ighb
Ã©t ait
Ã©t ude
Ġwe ather
Ġgenerate d
ĠK ey
Ġtrans port
tag s
rab ie
ĠJava Script
Ser ver
ĠÃ® les
a ive
i od
re ment
Ġl iv
Ġl ivre
() [
ĠB ase
Ġal lem
Ġ3 5
Ġ% .
Ġsc Ã¨ne
Ġid x
ĠthÃ© Ã¢tre
spe ed
exist s
Ġmes ure
( _
d ers
o th
Ġde mande
if iÃ©
Ġr and
ul s
ud ing
du ire
Ġsub strings
Ġsitu Ã©
twe ets
7 7
b ed
n on
in i
Ġb log
Ã¨ v
ĠD u
ĠV ALUES
sign al
Alle magne
_ ='
(" %
Ġdata frame
Ġcl Ã©
sel ect
Ġpermett ant
Ġwrit ten
Ġlarg ement
ĠCel a
s id
at ivement
Ġf aut
Ġm icro
Ġm essages
Ġles qu
act ive
Ġe v
Ġsc ulpt
sc reen
Ġpol y
Ar m
Ġsci ences
occ urr
Ġdistrib uted
amer oun
gypt e
C E
Ġ' \
Ġch art
== '
ĠrÃ© volution
au de
Ġrandom ly
Ġord in
ĠrÃ©fÃ©r ence
Ġmill ions
Ġfais ant
> '
L ine
h n
Ã¨ che
ite ur
ain er
Ġma i
Ã©r Ãªt
Ġcomm ence
so cket
ĠSt udent
Ġutilis Ã©s
Ġfig ure
Ġdyn am
anv ier
uros awa
d l
Ġt yp
Ġc elsius
is on
ex ception
ĠW HERE
con trib
con sumer
anci en
ĠK urosawa
ĠdÃ©c embre
Ġpartic ip
Ġdom ain
Ġhead ers
sy stem
Ġbret on
urt le
. ',
P re
Ã© b
as ion
ro le
Ġr ue
ĠP ost
ĠP oint
start s
Ġfr uits
ĠrÃ©alis ateur
Ġmaj or
ĠsÃ© par
Ġconsomm ation
Ġprot Ã©g
/ {
Ġm exic
ie w
ĠD an
ay e
mo ves
pre h
Ġmod ules
Ġsyst Ã¨mes
Ġrelig ie
Ġpres que
D ate
b est
h omme
in o
Ġde pth
Ġ( (
ri ent
lo re
ob jet
"] .
An t
Ġstat ut
rec ord
De f
Ġcommer ci
ĠSo ci
> ',
E l
p an
an im
ic ien
Ã¨ que
ig u
(' -
ĠR ed
Ġmais on
Ġpers onne
Ġco efficient
ĠÃ©c riv
Ġcy cle
activ itÃ©
Ġstop words
soft max
er ve
ar est
al t
() ))
Ġse e
Ġj anvier
Ã©t iques
entr y
comp agn
ĠlÃ©g is
Ġmot s
Ġrelig ieux
Ġcompr end
i els
n odes
Ġd Ã©r
ro y
Ġre al
Ġw ay
ol ution
Ġv ia
Ġun sorted
ĠN ic
com pl
ill on
Ġind Ã©pend
ĠÃ©g l
Ġanci ennes
Ġgen e
Ġentrepr ises
temper ature
Iv oire
> \
Ġ ir
Ġ utf
in ess
re lease
or ge
Ġc itÃ©
Ġen reg
Ġun it
Ġma g
Ġcl asse
av g
Ġsub st
ĠIn ter
Ġav ailable
Ġ199 9
Ġjam ais
O uest
i Ã©s
Ġt ax
Ġm Ã¨re
Ġv all
Ġcon se
Ġcon seil
ĠrÃ© f
ill er
Ã©d Ã©
Cl ient
Ch ild
Ġpermut ation
Ġappar aÃ®t
ĠintÃ© gr
i os
j e
Ġn or
ex pr
Ġfor ces
() ]
Ã©r er
ĠV ers
ĠEn tre
Ġav aient
ble au
Ġjou eur
Ġdest ination
mov ies
Acc uracy
h i
j oint
Ġf Ã©
Ġn oy
ĠT ree
ĠT oken
ol ing
Ġcom preh
ĠN ame
ĠE mployee
Ġmus ul
Ġsuper ficie
Am Ã©rique
Ġindivid ual
ĠBos nie
ĠCopy right
C L
f n
m ith
Ġd imin
Ġp auv
it ime
al pha
Ġla zy
Ġsum mary
Ġpath s
Ġpermett ent
ĠFontaine bleau
L og
n aire
o id
er b
re a
Ġc tx
Ġre comm
Ġdes ign
ĠM Ã©
ĠdÃ© tr
ais sent
form ations
ĉĉ ĉĉĉ
Ġcomm enc
Ġcreate d
Ġrun ning
email s
ÂłÂł ÂłÂł
istic s
std out
Ġdyn ast
Me ans
- ),
4 8
C M
E m
h alf
l ant
it ut
Ġex it
Ġ% ),
entr Ã©e
Ġconn aÃ®t
Ġactiv itÃ©s
Ġrequ ire
Ġrad io
spe c
square d
RA NT
NAM E
ĠWAR RANT
l im
Ġs rc
or ing
an oi
im er
Ġ' ))
Ġcon stru
ĠS ant
ĠB as
ob il
Ġsc rap
Ġdis pon
Ġman age
Ġprov o
Ġpat rimoine
oud ite
) \
Q u
f ull
l ation
o ute
s leep
Ġre duce
Ġj oin
Ġsoci ale
Ġconst itue
ĠTfidf Vectorizer
c an
Ġt elles
is mes
iv Ã©e
Ġdes cend
Ġdis pose
In valid
Ġlo ok
olog y
Ġmar s
Ġstart ing
Ġpeu pl
DE L
Ġiter tools
AB C
ĠdÃ©cl ar
: ])
A SE
Ġl ingu
Ġs l
ĠF ree
ĠR ome
ĠO pen
Ã©t aire
Ġfind ing
In teg
ari o
Ġcomp agn
ĠĠĠĠĠĠĠĠĠĠĠĠĠĠĠĠĠĠĠĠĠĠĠĠĠĠĠĠĠĠĠĠ ĠĠ
Ġht t
Ġpu issance
m ont
p a
or ange
Ġc alc
th rop
ĠC alcul
ra ges
Ġse ction
ind Ã©pendance
Ġres pond
Ġset tings
che d
Sort ed
Ġretrou ve
Ġappropri ate
= %
D ec
P ost
h am
re views
Ġin vert
if iques
Ġr ac
Ġpro fit
res se
Ġnew s
sp ir
ĠÃ©g ypt
Ġattrib ute
influ ence
B e
F T
a a
} '
er land
Ġc am
ing t
est ed
ĠS ub
ĠM er
ĠF ound
ĠF OR
ne ighbors
ob re
Ġcont empor
Ġpart ies
=" ")
Ġconvert s
Ġfort ement
encode d
Ġlitt Ã©rature
Ġcult e
ĠAN D
C ode
C ON
W ord
c ut
at ie
Ġm and
Ġap pr
ial ize
Ġpart i
ĠIn itial
iqu itÃ©
ĠprÃ© v
Ġret our
Ġsitu Ã©e
( .*
) *
D A
w arning
Ġin vent
rom e
ĠD Ã©c
Ġsc Ã©n
Ġchar ge
ud get
Ġkey words
ond s
Ġparticul ar
task s
9 5
C heck
Ñ Ĥ
Ġp i
ĠS uggest
cl usters
ag u
ĠE mpire
ĠĠĠĠĠĠĠĠĠĠĠĠĠĠĠĠ ĠĠĠĠ
Ġclass ique
Ġfe u
Ġpet ite
R NA
l ig
Ġf ull
Ġde velop
Ġ' *
ĠM ad
Ġqu alitÃ©
ang er
set up
Im age
W e
n orm
r in
er man
Ġt em
as cal
ist an
ĠC entre
pl iqu
ĠCh amp
Ġbe fore
vol ume
Ġdivers es
Ġsw ap
Ġprocesse ur
Ġscient ifique
combin ations
i Ã©e
at ors
Ġn ov
Ġre views
un t
th is
Ġto ol
Ġb asket
Ġg est
Ġv en
Ġcon v
ĠS u
Ġqu and
ĠR el
ens itÃ©
Ġat ta
Ġsa oudite
Ġ200 3
Ġje une
25 5
ose ph
################################ ################################
Ġquant ity
ifi Ã©e
+ '
0 2
h abit
tr ue
Ġb ritann
iv ely
Ġex Ã©cut
Ġ5 00
oc ab
ĠCon nect
row ser
Ġcommun autÃ©
Ġcap t
ĠâĢ ľ
ministr ation
IL ITY
starts with
H ome
c ustom
p ing
Ġ icon
Ġ errors
ct eurs
ĠC he
st derr
ĠR Ã©g
iss ons
Ġint ro
Ã¢ ge
Ġdist ing
new s
Ġsoci al
Ġmil itaires
Ġanci ens
ĠspÃ© cial
Ġeng ine
Ġquart ier
Ġgradi ent
ĠphÃ©n om
5 4
L o
c v
g round
l or
p k
} ".
Ġs ouver
Ã© gor
as ure
ĠT erre
Ġv ingt
Ġma gn
ĠrÃ© part
ĠĠĠĠĠĠĠĠĠĠĠĠĠĠĠĠ ĠĠĠĠĠ
Ġlog in
onn es
Ġact ive
Ġab sol
ĠgÃ©nÃ©r ale
Ġcompos Ã©
Ġcanc ers
) ])
6 7
D istance
c ad
d ownload
Ġc Ã´te
ar de
Ġf ree
Ġen se
Ġ[ -
ag o
ĉĉ Ċ
Ġtext e
ĠAn gel
Ġmar que
Ġprincip ale
ĠÃīt at
Ġsci ence
group s
ĠprÃ©c Ã©d
Ġconfig uration
sig moid
/ "
O cc
Ġ ke
Ġt aille
le y
Ġm n
am eters
Ã¨ les
his me
ĠCom me
Ġman ip
Ġdom in
Ġnormal ize
h ere
en glish
Ġf orecast
Ġre con
th ree
ri r
ĠdÃ© ro
text s
ĠIn t
Ġind ic
rap pe
occ up
R andom
h elper
p ages
at ifs
Ġ( ).
ow el
Ġpat ient
reg ister
Ġmem ory
P er
Ġs om
Ġp ix
Ġre q
Ġre pro
gr Ã¨s
ais se
ian de
Ġdist ances
Ġsoci Ã©tÃ©s
Ġreg roup
Ġatte int
6 8
: :
Ġd ates
Ġc op
ic ale
Ġ# #
Ġh or
Ġarray s
Ġweb page
Ġspe ed
Ġprin cipe
Un i
gl om
Ġmus Ã©e
Ġincl uding
Ġtoken ize
ĠPh ilippe
ibl ioth
ĠHen ri
ĠDecision TreeClassifier
Ġhtt ps
P T
g g
p ng
Ġ â
Ġl cs
Ġp a
Ġc ube
im eter
pr ise
ication s
Ġ* =
path s
Ġter m
Ġarg parse
ĠÃī ditions
ĠdÃ©f ense
Ġsimil arity
ĠcÃ©lÃ¨ bre
ĠFranc is
. )
g enerator
m al
r ich
Ġ Åĵuvres
ad min
Ġth ird
Ġh istoire
Ġro und
av id
Ġpopul ations
Ġstat ement
Ġcalcul ator
Ġhaut e
HT TP
ucl Ã©
O M
c Ã©e
h ome
i ction
i ou
m ul
Ġs mall
al th
Ġh uit
iz z
Ġpr ise
og ne
Ġex port
ress ions
sc al
col s
Ġ199 7
Ġdivis or
den ominator
J ava
S M
f am
k h
k er
s age
Ġf un
Ġm ys
ĠÃ© po
]) ):
Ġsu jet
Ġph ase
Ġcons ole
.. ..
Ġje unes
. -
s mallest
es ar
Ã¨ tres
ĠB ook
ĠN aive
Ġsh op
Ġfil le
Ã©m ie
Se quential
sv m
ĠÃ©col es
Ġl is
Ġl ois
Ġm eur
Ġv oire
ont re
Ġma k
Ġ3 4
ĠrÃ© un
ĠdÃ©c ouvert
ĠAr ch
Ġsup Ã©rieur
cle an
ĠreprÃ©sent ant
ÂłÂł Âł
ĠtÃ©lÃ©v ision
Ġappe ars
Ġmov ies
p ush
ur ity
Ġde code
Ġh ab
Ġpl ate
') ]
ak a
ĠEn fin
ye es
Ã©ra ire
Ġanci enne
Ġcombin ation
dim ensional
================================ ================================
diff erence
Ġju illet
sim il
P layer
ne ctor
ĠG a
ĠG ET
ais es
Ġ3 1
ĠrÃ© al
ĠĠĠĠĠĠĠĠĠĠĠĠĠĠĠĠ ĠĠĠĠĠĠĠĠĠĠĠĠĠĠĠĠĠĠĠ
Ġ4 00
fo o
ĠAr gs
ĠTo ute
Num bers
assert True
Ġhistor iques
Ġauth ent
I s
P os
V iew
u pe
ĠĠĠĠ ĠĊ
re v
at rice
Ġc ache
Ġf ill
ĠP IB
ĠB ien
ĠdÃ© put
Ġsort ie
Ġk wargs
Ġobject ive
ĠComp ile
zz le
ĠthÃ©or ie
ĠespÃ¨ ces
P rint
f erence
g ers
m ission
Ġt ab
Ġc ul
Ġdes ired
ĠS up
ĠG rande
ag raph
ĠW h
Ġou vert
En d
Ġmulti pl
Ġcompos Ã©s
erg ie
Ġchap elle
c rit
h ol
Ġd iss
Ġre lev
ĠC ON
ĠC SV
ad o
Ġcom port
requ ired
Ġinter pr
20 21
comm un
ĠSt ack
Ġlors qu
Ġrom ain
Ġchim ique
Ġoffic ielle
Ġcustom ers
F ind
T otal
[ ['
r is
u k
Ġde me
Ġn oir
Ġre gex
Ġb on
Ġv ois
Ġpr on
ph i
ial es
Ġim pro
Ġmod ified
aly se
Ġvalid ation
Res ponse
Ex ception
EN D
Ġdeven ir
5 8
A rabie
T able
g it
at us
or i
ro ids
em ment
ri ge
ĠS ch
Ġprint ing
ĠU S
Ã©ri ques
Ġset up
ĠK h
cont rol
orm ais
Ġdern iÃ¨res
charact er
Ġdirect ement
go ogle
ĠEl les
Ġress ources
B o
V ert
s ert
v ed
Ġ emp
en vironnement
as on
im iter
ĠT ri
Ġto t
ul aires
app y
Ġne eded
Ġlog ic
Ġadd ing
Ġinter est
Ġsp ace
AB ILITY
lex and
bas ed
Ġkn apsack
Ð¾ Ð
P S
p p
Ġt Ã©
Ġp le
ar k
Ġf actor
th ique
int Ã©
Ġv ect
Ġpar le
Ġh omme
to ol
pon ents
Ġ20 22
ois e
Ġdis que
fÃ©r ences
Ġprote ction
ĠStandard Scaler
7 6
C RE
p ad
x i
ĠC ongo
Ġb es
ex tract
ĠS p
Ġcom pose
Ġse cr
to ine
Ã©g uy
Ġdern iers
emper eur
Ġdec rypt
ram id
ĠNum ber
urÃ© at
Â° Â°
divis ible
ĠSV C
P rice
b s
g on
s ure
Ġ iv
Ġt el
Ġt urn
an o
al i
Ġb it
ci de
(" -
(' %
Ġ20 21
Ġim pos
ĠAn t
Ġ199 8
ĠPro v
Ġprocess ing
org es
Ġcell ules
esse ur
P ol
w ait
Ġa ch
Ġs ure
Ġn uclÃ©
ic ode
Ġb ran
ci pl
ĠB inary
Ġro uge
Ġnom s
Ġinter face
ĠTra verse
doc s
Ġjou eurs
Ġconcat en
I F
f un
i ke
en nent
Ġf ive
im ages
ĠT HE
ĠC IA
Ġun ders
pl ib
Ġex pected
Ġ% (
Ã©n ergie
Ġper d
Ġlib re
Ġart istes
Ġmet tre
Ġju in
Cont ent
0 6
L a
O rient
b on
Ġm enu
ĠC o
Ġv Ã©rit
ri ques
Ġcom Ã¨te
ind ivid
Ġ% )
Ġdi pl
Ġdis pos
Ã©d ition
Ġenc oding
Ġhe ap
Ġfon ctions
Ġcompr is
ful ly
hand ler
Ġallow s
P y
b ye
s quares
w rapper
th read
ĠL anguage
ou le
ir s
Ġpour rait
Ġimport antes
Ġpart is
olog ies
ĠAl l
predict ed
St art
Ġmatch ing
organ isation
Ġgreat est
ĠMart in
Ġframe work
tri angle
Integ er
5 00
re view
Ġp ie
it or
Ġv iande
ot ion
Ġh ours
Ġdef ines
up in
ĠE X
ĠW IT
Ġso um
Ġfin alement
Ġbe gin
St ate
Ġnov embre
O per
Y Z
e valuate
g y
t uple
v ille
in et
Ġd own
Ġl ater
it utions
ĠP et
ĠC y
Ġb ro
Ġe val
Ġsh uffle
Ġnom mÃ©
ĠdÃ©c ouverte
pack age
Ġvol ume
Ġmaj e
rat ie
Ġoccurr ence
Ġbot tom
custom ers
( ?
A ctiv
v ader
ot o
Ġcl usters
Ġ199 5
dir name
ĠChar tres
ĠLink edList
= ["
E spagne
] ],
i ge
at on
Ġin spir
st yle
ag nes
Ġro s
Ġnot ion
mat izer
Ġpe uple
ST M
Ġhead lines
Ġtrav aill
Ġterrit oires
gen e
Ġconstr aint
= {'
a vec
c art
f c
i ance
Ġs aison
Ġn os
qu Ã©
am Ã©ric
ĠP Ã©guy
ĠC ameroun
Ġan arch
ch ase
ĠÃ© lu
ĠF il
Ġpr endre
Ã©r ant
Ġsur face
Ã©t abl
ĠÂ» ),
Ġconn ue
ish er
ĠURL s
Ġvol ont
ĠsiÃ¨ cles
Ġtour isme
Ġrepresent ing
Ġmal grÃ©
Ġdeven u
ĠcaractÃ©r istiques
Ġboudd hisme
ĠmÃ©c an
dess us
Ġmys ql
: .
? )
T R
a o
Ġn our
ic isme
os ph
ĠR ad
Ġrec ens
Ġfond Ã©e
rec ords
Ã©ro Ã¯
Ġye ars
Ġmal ad
cap acity
Ã©qu ipe
block s
Ġinv est
Ġinflu ence
ĠPlus ieurs
Ġste p
F orm
P ORT
t ant
Ġc ab
Ġm ission
de pend
ĠC ost
Ġb ata
Ġg e
Ġpar all
ir th
Ġj ug
Ġcons ist
En c
Ġstore d
Ġco ordinates
iro pr
mt plib
permut ations
explo itation
ĠFound ation
) //
+ "
f actorial
Ġp ut
Ã© ros
Ġm asse
Ġre dis
ic iens
Ġb ord
ch ron
Ġpro test
ĠS mith
ĠM aur
ĠD o
up es
Ġsc al
read er
Ġpopul ar
Ġrem ont
mb edding
CH A
xy z
Ġill ustr
) *(
L M
U RE
c ard
m m
p ay
er ce
Ġv ient
Ġpro ven
)) ]
ag Ã©
ĠR ou
Ġex act
Ġex erc
Ġcont rol
ĠH ow
Ġ6 5
Ġim ag
Ġtro uv
Ġart s
Ġprov in
ĠdÃ©s ormais
Ġmont re
Ne ighbors
HO UT
Ġhash lib
A uver
} /
Ġd en
ĠC our
iv itÃ©
Ġqu as
ĠG all
ĠN ou
Ġsh ape
Ġsub s
Ġav ril
ussi an
Ġtri b
Ġant ique
Ġcapac itÃ©
Ġcalend rier
numer ator
Auver gne
. ",
7 4
7 9
r l
r its
Ġd type
ĠP ol
Ġb le
Ġma ze
ĠI I
enc ontre
Ġcentr al
Ġ7 5
Ġdiv ision
Ġche min
Ġcent er
Ġsci py
ĠnÃ© erland
A verage
C lo
U SER
f ail
f requencies
h ot
u ant
Ġp ay
Ġf ahrenheit
im m
em ber
int Ã©rieur
Ġb ron
Ġet hn
Ġv ra
Ġth ese
ĠB a
Ġal pha
Ġ19 50
ĠDe ux
ĠK Means
ces sed
Ġter mes
ĠX ML
ĠChar ente
ĠcrÃ© Ã©e
Ġje ux
param eters
Pro duct
Ġgroup s
mÃ© tr
Ġtoute fois
Ġautom at
ĠRem ove
Q U
\ '
f ill
w n
Ġp unctuation
ĠB ayes
ub les
Ġmax Length
ĠÃ©t ude
class es
po ol
Ġam b
Ġlang uages
Re pository
ĠAn n
ĠSe conde
des c
ĠSt art
Ġconstitu ent
Ġoffic iel
Ġcrit ique
Ġpack ages
ĠSy stem
Ġlet tres
Ġagric ole
M O
d ic
s ender
Ġs mtplib
if ies
ĠP an
ĠC ulture
Ġ" ".
(' --
ĠJ os
20 20
Ġpass Ã©
ann er
Ãī gypte
Ġrem ar
Ġdur Ã©e
Ġbl anc
Ġag ain
Ġoccident ale
7 2
C II
en de
Ġn n
if e
Ġr ay
ĠT EXT
ĠT ABLE
ĠS um
ĠĠĠĠĠĠĠĠĠĠĠĠĠĠĠĠ ĠĠĠĠĠĠĠĠĠ
com pute
Ã©t at
Ġap port
Ãª que
Ġrel ation
Ġ` `
Ġac qu
Val ues
ĠRÃ© fÃ©rences
Ġconstitu Ã©
Ġequ ivalent
Ġconstr uit
Ġcompreh ension
Ġdynast ie
Home Dir
B U
t Ã©
t uples
Ġre po
ĠT w
id ity
pt ime
(" /
ĠG Ã©
Ġj ur
Ġas pect
Ġcl s
Ġtra itÃ©
-------- ------
Ġ> >
ĠSe arch
Ġoptim al
Ġac compagn
Ġterrit or
SS H
Ġinflu enc
ĠRoy aume
O UR
g end
r m
in clude
at trib
Ġb ande
Ġg lob
ot a
Ġar mes
ĠD Ã¨s
ĠN orm
Ġau dio
Ġ% ,
ign ore
Ġcor pus
Ġocc ur
AL L
AN G
Ġlarg er
Ġdiffic ile
det ails
ĠCro atie
ĠfÃ© min
, '
C I
P alindrome
P UT
Ġd ialog
Ġm obil
ĠL os
Ġqu ad
ĠW eb
Ġtra ce
fo ot
Ġop pos
amb od
Ġmulti ples
Ġconsid Ã©ra
del Ãł
Ġcult ures
ĠPart i
ĠSw ap
ĠToute fois
M ap
e f
ro oms
Ġcon son
Ġcon secutive
ĠW illi
ail les
Ġtest s
ĠPar ameters
yn omial
Ġextract s
Ġconc entr
Ġpersonn age
ĠamÃ©ric ains
Ġthread ing
Ġcoule ur
Ġrece ived
ĠAnd rÃ©
Ass emblÃ©e
fact ors
Pool ing
i h
l p
Ġa ctions
ent er
if orm
ex port
ri re
ĠF irst
ĠE d
Ġsc he
quest ion
ial s
Ġcol s
Ġon line
Ġmin imize
requ ires
sub mit
Ġgra v
Ġparse d
gre en
Ġinsert ion
Ġcaract Ã¨re
Ġprim aires
Ġfoot ball
ĠBern ard
ĠAngel es
` ,
a iled
c ounter
f red
u ent
Ġt im
Ġp ap
Ġn uit
ic o
ol ve
Ġ2 9
ĠF e
Ġch iropr
ĠB ret
Ã©c riture
Ġstr uctures
bo le
Ġ{} ,
ĠdÃ©velop pe
ĠdÃ©velopp Ã©
Ġchim iques
ĠÃ©lev Ã©
ĠSto re
6 3
T rans
Ã© tr
Ġc m
se e
ge d
Ġw on
ĠL upin
pl us
ir c
ci er
Ġch anges
Ġit al
pr Ã©s
ĠÃ©t at
cont ainer
Ġz ero
Ġsup pl
Ġ199 3
Ġ199 4
Ġloc ale
Ġhe x
Ġcontext e
Ġang le
Ġconcern ant
Ġoct obre
ĠPers onn
B lob
G B
W elcome
c y
f ut
f ont
m ask
p aper
r b
} "
Ġa ra
Ġl in
Ġs emble
Ġp ont
or de
Ġb our
ex erc
Ġ" ")
)) .
Ġro is
ert s
ser ies
Ġsh ift
Ġsu it
ER R
Ġprocess us
Ġvo ix
off set
Ġfront iÃ¨re
Ġjapon aise
igr ation
Ġdiffic ult
abc def
ucl ide
gent ine
Ġcher che
Ġaute urs
C alculate
S p
T H
[ ^
] }
b um
x im
Ã ¼
Ġp alindrom
or age
Ġm ieux
ex ec
Ġcon Ã§
con nector
ĠH istor
Ġdi rige
Ġtro upes
format ique
iter ran
met a
Ġculture lle
Ġpu iss
ĠFran cs
Mat rix
ae iou
DI R
Ġris que
ĠchaÃ® ne
orient ed
ĠWIT HOUT
A rea
] ;
h elp
Ġs an
an imal
Ġm ac
ic an
Ġv ot
ĠS es
Ġal ong
ind ices
ĠN o
ĠW hat
Ġcl ub
per cent
Ġrec ettes
Ġsol utions
Ġpubl ished
ET E
acc Ã¨s
ner g
ĠreprÃ©sent ent
Ġviv ant
Ġauc un
Ġlum iÃ¨re
Mod ule
" ][
5 9
L ink
T ag
a ite
f ar
l iers
n s
t y
t ab
} _
en f
Ġp ert
ro ck
il ib
Ġb its
def in
ad ministration
and ie
ne ur
Ġro utes
], [
Ġrel ie
ĠSe cond
OR D
Ġsyn thÃ¨se
ĠComm un
Ġincre asing
Ġaj out
Ġbritann ique
CRE ATE
T itle
f ort
re gex
Ġp rior
Ġr are
ĠM ag
Ġth reshold
Ġj umps
app el
ĠdÃ© termin
au g
class ify
Ġpart s
Ġbe ing
Ã©g Ã©t
vol t
Ġreg ular
ites pace
agn ost
Ġciv ile
pons es
Ġwin ner
ĠdÃ©sign er
ĠdÃ©moc r
Ġfranc oph
Ġpot ent
Ant iquitÃ©
! ",
6 2
C ar
C ESS
P AS
c nt
} '.
Ġc Åĵur
Ġto day
ĠL im
ol a
Ġpar l
ĠS ous
ĠM ongo
ire ct
ith ub
ph an
ĠLa urÃ©at
Ġdi ag
Ġsh ell
Ġmat rices
ari able
ern al
Ġcommun aut
AR Y
Ġdom aines
Ġcou vert
Ġvo ie
Ġsav oir
Ġcho ices
LOG GER
8 2
C ase
M ean
d ont
w ers
Ġde mand
et ic
Ġr at
ĠT ur
Ġb ound
ant in
Ġch ant
') [
aut eur
Ġdiff us
Ġconn us
Ġ199 2
ber g
Ġvis ual
Ġpredict ed
ĠSaint e
Ġrom aine
Pro cess
doc ument
cr imin
Ġprobl Ã¨me
. ),
6 9
T wo
U p
n aires
x t
z A
z one
Ġa Ã©ri
Ġl it
Ġt ables
Ġp ierre
Ġh ors
Ġh alf
ĠB i
ĠIn sert
char ge
Ġrel ative
ĠfranÃ§ais es
Ġman y
Ġmont agne
ĠprÃ©sident ielle
Sub string
Ġsepar ate
Ġprobl Ã¨mes
Ġquot id
' m
? ,
a une
Ġl on
Ã© volution
an file
st ats
ou x
Ġpr Ã©d
ĠE T
ale ct
ill a
ern et
Ġlang ages
alis Ã©e
Al ger
Ġstat ic
Ġcalcul ating
Ġmoy ens
Ġpet its
dire ct
Ġcomb ine
Ġimpl ied
Ġchiff res
Ġprogress ivement
encrypt ed
Ġnav ig
Ġaup rÃ¨s
Y our
Ä ģ
Ġa ble
Ġt re
Ã© lection
am ps
if iers
ĠT echn
Ġpro port
cl ick
str ptime
val s
Ġ< <
append Child
av oir
astr onomie
Ġpos itions
inter face
ĠrÃ©gion al
Ġclo th
Ġgener ator
Par ams
ĠfrÃ© qu
Ġcapac ity
Comm on
uclide an
: '
A b
C all
P U
j o
p ivot
s udo
u elles
re ction
Ġs m
Ġde p
ro g
om et
Ġla c
ul er
pl ific
## #
ĠG ame
add r
Ġsp at
log ger
Ã©ra ux
exist ence
Ġcraw ler
tit les
Ġvall Ã©e
I talie
c ourse
p ower
in cip
en ded
Ġp adding
th reshold
Ġ' ')
ĠL abel
list en
ag ent
ĠE st
ure au
Ġso ul
sc he
Ġuse ful
Ġmath Ã©mat
Ġsyn tax
Ġmark s
gu ess
Ġiss us
Ġiss ue
Ġattr s
vm fs
simil arity
7 1
o ot
Ġs ites
Ġp ick
an es
is m
Ġf ro
est e
Ġb uilt
ĠdÃ© l
Ġnot re
ĠV ol
du le
du ite
Ġpe ople
Ã§ ant
Ġam Ã©l
Ġpubl iÃ©
Ġtable au
ĠPro cess
Ġloc ales
PO SE
ĠÃ©conom iques
Ġjust ice
Ġallem and
A Y
G enerate
O ptim
e qu
j ust
u uid
Ġl ignes
Ġt urtle
is odes
al iment
Ġn ull
Ġh ouse
ĠG en
Ġse q
Ġj ard
Ġex pos
art s
Ġlong temps
main loop
Ġ199 1
Ġother wise
Ġprop res
ĠprÃ©c is
sy mb
Ġpsy ch
Ġnoy au
DEL ETE
P RO
R U
g lobal
i ate
u Ã©s
or b
an alyse
Ġm ett
Ġr iz
Ġv Ã©gÃ©t
ri en
Ġpro pose
id Ã©e
ĠI P
