{"<s>":0,"<pad>":1,"</s>":2,"<unk>":3,"<mask>":4,"!":5,"\"":6,"#":7,"$":8,"%":9,"&":10,"'":11,"(":12,")":13,"*":14,"+":15,",":16,"-":17,".":18,"/":19,"0":20,"1":21,"2":22,"3":23,"4":24,"5":25,"6":26,"7":27,"8":28,"9":29,":":30,";":31,"<":32,"=":33,">":34,"?":35,"@":36,"A":37,"B":38,"C":39,"D":40,"E":41,"F":42,"G":43,"H":44,"I":45,"J":46,"K":47,"L":48,"M":49,"N":50,"O":51,"P":52,"Q":53,"R":54,"S":55,"T":56,"U":57,"V":58,"W":59,"X":60,"Y":61,"Z":62,"[":63,"\\":64,"]":65,"^":66,"_":67,"`":68,"a":69,"b":70,"c":71,"d":72,"e":73,"f":74,"g":75,"h":76,"i":77,"j":78,"k":79,"l":80,"m":81,"n":82,"o":83,"p":84,"q":85,"r":86,"s":87,"t":88,"u":89,"v":90,"w":91,"x":92,"y":93,"z":94,"{":95,"|":96,"}":97,"~":98,"¡":99,"¢":100,"£":101,"¤":102,"¥":103,"¦":104,"§":105,"¨":106,"©":107,"ª":108,"«":109,"¬":110,"®":111,"¯":112,"°":113,"±":114,"²":115,"³":116,"´":117,"µ":118,"¶":119,"·":120,"¸":121,"¹":122,"º":123,"»":124,"¼":125,"½":126,"¾":127,"¿":128,"À":129,"Á":130,"Â":131,"Ã":132,"Ä":133,"Å":134,"Æ":135,"Ç":136,"È":137,"É":138,"Ê":139,"Ë":140,"Ì":141,"Í":142,"Î":143,"Ï":144,"Ð":145,"Ñ":146,"Ò":147,"Ó":148,"Ô":149,"Õ":150,"Ö":151,"×":152,"Ø":153,"Ù":154,"Ú":155,"Û":156,"Ü":157,"Ý":158,"Þ":159,"ß":160,"à":161,"á":162,"â":163,"ã":164,"ä":165,"å":166,"æ":167,"ç":168,"è":169,"é":170,"ê":171,"ë":172,"ì":173,"í":174,"î":175,"ï":176,"ð":177,"ñ":178,"ò":179,"ó":180,"ô":181,"õ":182,"ö":183,"÷":184,"ø":185,"ù":186,"ú":187,"û":188,"ü":189,"ý":190,"þ":191,"ÿ":192,"Ā":193,"ā":194,"Ă":195,"ă":196,"Ą":197,"ą":198,"Ć":199,"ć":200,"Ĉ":201,"ĉ":202,"Ċ":203,"ċ":204,"Č":205,"č":206,"Ď":207,"ď":208,"Đ":209,"đ":210,"Ē":211,"ē":212,"Ĕ":213,"ĕ":214,"Ė":215,"ė":216,"Ę":217,"ę":218,"Ě":219,"ě":220,"Ĝ":221,"ĝ":222,"Ğ":223,"ğ":224,"Ġ":225,"ġ":226,"Ģ":227,"ģ":228,"Ĥ":229,"ĥ":230,"Ħ":231,"ħ":232,"Ĩ":233,"ĩ":234,"Ī":235,"ī":236,"Ĭ":237,"ĭ":238,"Į":239,"į":240,"İ":241,"ı":242,"Ĳ":243,"ĳ":244,"Ĵ":245,"ĵ":246,"Ķ":247,"ķ":248,"ĸ":249,"Ĺ":250,"ĺ":251,"Ļ":252,"ļ":253,"Ľ":254,"ľ":255,"Ŀ":256,"ŀ":257,"Ł":258,"ł":259,"Ń":260,"ĠĠ":261,"ĠĠĠĠ":262,"in":263,"es":264,"en":265,"on":266,"Ġd":267,"Ġa":268,"er":269,"ĠĠĠ":270,"re":271,"Ġl":272,"Ġt":273,"Ġs":274,"at":275,"Ġp":276,"or":277,"Ã©":278,"Ġc":279,"an":280,"is":281,"Ġ=":282,"it":283,"ar":284,"ur":285,"el":286,"Ġf":287,"ent":288,"ĠĠĠĠĠĠĠ":289,"Ġde":290,"al":291,"et":292,"as":293,"ion":294,"he":295,"ro":296,"Ġin":297,"Ġn":298,"qu":299,"le":300,"Ġm":301,"ct":302,"ut":303,"Ġre":304,"um":305,"un":306,"de":307,"Ġthe":308,"tr":309,"im":310,"am":311,"ing":312,"Ġo":313,"if":314,"us":315,"om":316,"Ġr":317,"):":318,"ĠT":319,"ĠĊ":320,"th":321,"ĠĠĠĠĠĠĠĠ":322,"ist":323,"ĠP":324,"em":325,"ic":326,"est":327,"ate":328,"ĠC":329,"Ġto":330,"il":331,"int":332,"Ġla":333,"ort":334,"se":335,"Ġb":336,"ul":337,"Ġan":338,"Ġg":339,"urn":340,"Ġ1":341,"Ġ'":342,"Ġet":343,"ge":344,"turn":345,"iv":346,"ask":347,"ation":348,"elf":349,"ex":350,"Ġreturn":351,"Ġ(":352,"yth":353,"Ġw":354,"Ġle":355,"ython":356,"Ġfor":357,"ce":358,"Ġdes":359,"Ġ\"":360,"Ġen":361,"ch":362,"ĠL":363,"rint":364,"ers":365,"ĠTask":366,"ra":367,"ol":368,"st":369,"ord":370,"ĠĠĠĠĠĠĠĠĠĠĠ":371,"Ġv":372,"que":373,"Ġof":374,"ĠPython":375,"Ã¨":376,"ĠÃ":377,"port":378,"Ġ#":379,"ri":380,"Ġpro":381,"Ġpar":382,"Ġif":383,"--":384,"res":385,"Ġnum":386,"tring":387,"lo":388,"def":389,"Ġcon":390,"ap":391,"ant":392,"ction":393,"od":394,"ie":395,"our":396,"ig":397,"ata":398,"ite":399,"Ġun":400,"Ġand":401,"ĠA":402,"import":403,"ame":404,"Ġles":405,"ad":406,"ot":407,"and":408,"ĠÃł":409,"id":410,"ass":411,"ĠS":412,"ou":413,"Ġ[":414,"ed":415,"ĠM":416,"Ġ+":417,"Ġdu":418,"()":419,"Ġself":420,"Ġar":421,"pl":422,"',":423,"ue":424,"pt":425,"ement":426,"ain":427,"end":428,"Ġ2":429,"ac":430,"##":431,"ult":432,"put":433,"rom":434,"Ġcom":435,"ir":436,"ans":437,"Ġth":438,"ĠD":439,"ci":440,"Ġ0":441,"gr":442,"ab":443,"Ġel":444,"__":445,"ont":446,"Ġqu":447,"op":448,"ĠÃ©":449,"ĠF":450,"))":451,"ode":452,"reate":453,"ve":454,"Ġlist":455,"Ġch":456,"age":457,"Ġprint":458,"Ġh":459,"ext":460,"Ã©s":461,"list":462,"ess":463,"Ġis":464,"gram":465,"ne":466,"ĠB":467,"ile":468,"me":469,"print":470,"num":471,"ux":472,"Ġnumb":473,"ver":474,"self":475,"ib":476,"ine":477,"(\"":478,"Ġ==":479,"ter":480,"os":481,"ĠG":482,"Ġi":483,"cl":484,"('":485,"ire":486,"Ġest":487,"Ġma":488,"ĠI":489,"ique":490,"\",":491,"iz":492,"ange":493,"Ġse":494,"te":495,"Ġprogram":496,"Ġpl":497,"Ã©c":498,"Ġj":499,"oun":500,"Ġpr":501,"word":502,"Ġal":503,"Ġstring":504,"ĠCreate":505,"ag":506,"pe":507,"ind":508,"ay":509,"Ã©e":510,"ment":511,"==":512,"00":513,"for":514,"ub":515,"di":516,"og":517,"ĠN":518,"ith":519,"to":520,"one":521,"Ġdef":522,"âĢ":523,"name":524,"')":525,"Ġ:":526,"Ġy":527,"':":528,"Ġas":529,"Ġdata":530,"----":531,"ke":532,"ĠR":533,"up":534,"Ġrange":535,"ĠE":536,"Ġres":537,"odel":538,"Ġpour":539,"ĠW":540,"act":541,"Ġ-":542,"ĠĠĠĠĠĠĠĠĠĠĠĠĠĠĠ":543,"Ġus":544,"string":545,"iven":546,"app":547,"Ġe":548,"Ġro":549,"ĠO":550,"Ġthat":551,"Ġdans":552,"ques":553,"ime":554,"Ġex":555,"Ã©r":556,"ure":557,"art":558,"ence":559,"Ġgiven":560,"âĢĻ":561,"ale":562,"Ã©es":563,"ener":564,"),":565,"ĠÂ":566,"ht":567,"ures":568,"Ġ{":569,"aut":570,"data":571,"Ġcl":572,"Ġimport":573,"Ġau":574,"']":575,"Ġword":576,"Ġlen":577,"rite":578,"Ġune":579,"Ġit":580,"unction":581,"ount":582,"pr":583,"ck":584,"ĠĠĊ":585,"ray":586,"les":587,"ĠdÃ©":588,"Ã¨re":589,"\")":590,"Ġne":591,"str":592,"####":593,"ais":594,"Ġ3":595,"ow":596,"Ġ%":597,"get":598,"all":599,"arr":600,"from":601,"andom":602,"ect":603,"ens":604,"ob":605,"val":606,"enerate":607,"iques":608,"con":609,"\"\"":610,"ance":611,"uct":612,"urs":613,"ĠrÃ©":614,"Ġst":615,"ĠĠĠĠĠĠĠĠĠĠĠĠĠĠĠĠ":616,"ple":617,"ang":618,"['":619,"ize":620,"Ġqui":621,"ier":622,"Ġsc":623,"Ġx":624,"Ġfunction":625,"ath":626,"key":627,"Ġnumber":628,"ice":629,"Ġnot":630,"len":631,"au":632,"ert":633,"com":634,"ost":635,"ĠLe":636,"Ġval":637,"Ġplus":638,"ph":639,"ication":640,"Ġque":641,"ase":642,"Ġresult":643,"ard":644,"ait":645,"Ġ19":646,"ive":647,"ary":648,"Ġelse":649,"Ġmax":650,"Ġ<":651,"Ġcont":652,"ĠWrite":653,"],":654,"Ġnumbers":655,"Ġsur":656,"Ġfrom":657,"])":658,"Ġ5":659,"Ġwith":660,"Ġclass":661,"append":662,"Ġ+=":663,"form":664,"oc":665,"Ġor":666,"per":667,"ient":668,"ust":669,"itÃ©":670,"ign":671,").":672,"utput":673,"ĠH":674,"par":675,"ore":676,"Ġtra":677,"Ġpre":678,"ies":679,"rue":680,"able":681,"Ġarr":682,"quest":683,"enc":684,"Ġso":685,"ill":686,"Ã©t":687,"Ġwh":688,"ĠÃ©t":689,"ins":690,"cc":691,"Ġ4":692,"ff":693,"ĠLa":694,"ip":695,"ions":696,"Ġrandom":697,"text":698,"Ġchar":699,"Ġou":700,"ĉĉ":701,"dict":702,"Ġcode":703,"test":704,"ĠJ":705,"pon":706,"elle":707,"Ġ*":708,"ong":709,"Ġsont":710,"ma":711,"ript":712,"model":713,"Ġinput":714,"numb":715,"Ġsort":716,"ors":717,"Ġap":718,"dd":719,"====":720,"gth":721,"ress":722,"Ġcomm":723,"low":724,"urr":725,"Ġ__":726,"ak":727,"ial":728,"Ã¨s":729,"Ġsum":730,"ĠU":731,"Ãª":732,"Ġfin":733,"dex":734,"vec":735,"ues":736,"Ġtw":737,"class":738,"ations":739,"pro":740,"url":741,"alc":742,"aire":743,"Ġpart":744,"--------":745,"Ġ[]":746,"Ġarray":747,"Ġ>":748,"ail":749,"iss":750,"ĠĠĠĠĊ":751,"arg":752,"Ġ;":753,"\":":754,"ran":755,"Ġmodel":756,"Ġall":757,"ud":758,"ĠÂ»":759,"Ġcol":760,"arch":761,"ser":762,"Ġget":763,"Ġstr":764,"ace":765,"po":766,"Ġdi":767,"ĠV":768,"ack":769,"ien":770,"Ġavec":771,"fr":772,"alcul":773,"emp":774,"ject":775,"entr":776,"Ġlog":777,"Ġelement":778,"words":779,"vel":780,"Ġrequest":781,"ĠÂ«":782,"Ã©n":783,"Ġtr":784,"Ġfind":785,"ĠLes":786,"gor":787,"ute":788,"plit":789,"ĠDe":790,"mo":791,"py":792,"alse":793,"ification":794,"du":795,"ĠCh":796,"Ġon":797,"tre":798,"Ã©ri":799,"Ġ20":800,"ype":801,"bo":802,"av":803,"ition":804,"Ġtwo":805,"pos":806,"els":807,"aux":808,"heck":809,"oup":810,"ity":811,"Ġ,":812,"sc":813,"pre":814,"ĠEn":815,"item":816,"Ġwords":817,"Ġtext":818,"][":819,"Ġ10":820,"son":821,"une":822,"ents":823,"ois":824,"Ġent":825,"Ġname":826,"########":827,"train":828,"arn":829,"Ġson":830,"():":831,"Ġper":832,"Ġnew":833,"add":834,"Ġ.":835,"mat":836,"='":837,"Ġwe":838,"Ġmin":839,"result":840,"Ġnp":841,"Ġsh":842,"ast":843,"auth":844,"Ġset":845,"Ġusing":846,"ĠGenerate":847,"Ġbe":848,"are":849,"Ġcount":850,"Ġkey":851,"rique":852,"ide":853,"Ġsent":854,"eth":855,"//":856,"Ġitem":857,"ml":858,"ach":859,"Ġfil":860,"Ġgenerate":861,"Ġpython":862,"itect":863,"Ġpe":864,"Ġsu":865,"ĠĠĠĠĠ":866,"init":867,"Ġarch":868,"Ġmat":869,"ight":870,"Ġk":871,"TP":872,"anci":873,"Ġsy":874,"Ġil":875,"Ġ8":876,"ays":877,"iff":878,"onn":879,"input":880,"bre":881,"frique":882,"ĠNone":883,"Ġnom":884,"clus":885,"alculate":886,"Ġcentr":887,"Ġsub":888,"isÃ©es":889,"min":890,"Ã§":891,"uis":892,"ĠTrue":893,"ft":894,"ify":895,"assword":896,"Ġint":897,"its":898,"Ġdis":899,"we":900,"Ġaut":901,"sum":902,"ĠFalse":903,"Ġ6":904,"ĠnÃ©c":905,"ix":906,"ĠThe":907,"Ġat":908,"Ġce":909,"iel":910,"Ġim":911,"In":912,"ĠnÃ©cess":913,"astr":914,"ĠĠĠĠĠĠĠĠĠĠĠĠĠĠĠĠĠĠĠ":915,"ug":916,"Ã©cur":917,"ponse":918,"out":919,"ouv":920,"Ġarchitect":921,"urrent":922,"Ġob":923,"ise":924,"Ġpos":925,"Ġser":926,"Ġscript":927,"Ġuser":928,"Ġmo":929,"__(":930,"Ġvalue":931,"Ġcentrale":932,"ĠsÃ©cur":933,"itle":934,"ires":935,"uctures":936,"vert":937,"ette":938,"cept":939,"oul":940,"10":941,"rit":942,"Ġ\"\"\"":943,"ĠIn":944,"split":945,"ĠAfrique":946,"obile":947,"Ġfinanci":948,"ates":949,"sort":950,"Ġrob":951,"frastr":952,"cess":953,"cs":954,"ĠK":955,"Ġcomme":956,"=\"":957,"array":958,"iÃ¨re":959,"oney":960,"authent":961,"Ġelif":962,"frastructures":963,"Ġsa":964,"ĠnÃ©cessite":965,"inclus":966,"Ġinfrastructures":967,"ĠfinanciÃ¨re":968,"Ġtak":969,"ille":970,"ustes":971,"verse":972,"Ġarchitectures":973,"gorith":974,"ces":975,"eur":976,"ĠMobile":977,"Ã´":978,"Ġlogiques":979,"authentification":980,"Ġrobustes":981,"ĠMoney":982,"ĠsÃ©curisÃ©es":983,"inclusion":984,"ĠOTP":985,"file":986,"Ġbo":987,"Ġcan":988,"path":989,"ich":990,"ubl":991,"Ġaux":992,"count":993,"ari":994,"rÃ©":995,"iment":996,"sent":997,"ps":998,"Ġadd":999,"gorithm":1000,"set":1001,"ild":1002,"iÃ¨":1003,"Ġav":1004,"numbers":1005,"velop":1006,"rand":1007,"ĠIl":1008,"Ġtakes":1009,"rix":1010,"ethod":1011,"Ġ7":1012,"([":1013,"uss":1014,"che":1015,"Ġare":1016,"Ġlong":1017,"ature":1018,"ree":1019,"ok":1020,"ble":1021,"head":1022,"max":1023,"tal":1024,"Ġmon":1025,"ample":1026,"ĠCon":1027,"Ġalgorithm":1028,")):":1029,"Ġcharact":1030,"ctions":1031,"essage":1032,"ven":1033,"ern":1034,"index":1035,"Ġpo":1036,"Ġter":1037,"Ġoutput":1038,"19":1039,"Ġpas":1040,"Ġtest":1041,"ui":1042,"Ġ200":1043,"ains":1044,"ense":1045,"ly":1046,"Ã©g":1047,"ences":1048,"Ġrequests":1049,"read":1050,"util":1051,"requ":1052,"Ġmod":1053,"alement":1054,"duct":1055,"col":1056,"Ã©d":1057,"Ġby":1058,"Ġcreate":1059,"Ġ{}":1060,"date":1061,"Ã¢":1062,"ĠPar":1063,"Ġem":1064,"Ġcheck":1065,"ages":1066,"his":1067,"ants":1068,"Ġsk":1069,"sh":1070,"row":1071,"Ġweb":1072,"raph":1073,"Ġarg":1074,"mes":1075,"char":1076,"ution":1077,"Ġup":1078,"Ġcalculate":1079,"Ġdat":1080,"main":1081,"ell":1082,"ptim":1083,"ec":1084,"Ġend":1085,"iste":1086,"length":1087,"ror":1088,"========":1089,"ression":1090,"ken":1091,"learn":1092,"value":1093,"Ġtotal":1094,"ink":1095,"Ġtro":1096,"Ã©l":1097,"oire":1098,"ield":1099,"Ġentre":1100,"oir":1101,"Ġacc":1102,"Ġinter":1103,"opul":1104,"Ġam":1105,"fit":1106,"oin":1107,"acci":1108,"Ġ9":1109,"find":1110,"Ġdiff":1111,"ctionary":1112,"move":1113,"Ġstrings":1114,"vent":1115,"irst":1116,"ibon":1117,"ibonacci":1118,"Ġcurrent":1119,"Ġdeux":1120,"Ġinto":1121,"ould":1122,"Ġrow":1123,"Ġfile":1124,"ĠDes":1125,"Ġprem":1126,"itu":1127,"number":1128,"ales":1129,"ule":1130,"Ġwhile":1131,"format":1132,"ident":1133,"Ġout":1134,"20":1135,"ER":1136,"ible":1137,"Ġpays":1138,"cont":1139,"ices":1140,"ĠÃī":1141,"ett":1142,"Ġlength":1143,"ats":1144,"Ġeach":1145,"izer":1146,"Ġsklearn":1147,"\"\"\"":1148,"ator":1149,"Ġ/":1150,"teg":1151,"Ġenc":1152,"\"]":1153,"Ġ18":1154,"ĠOutput":1155,"Ġph":1156,"ours":1157,"aires":1158,"Ġact":1159,"Ġlo":1160,"The":1161,"Ġcons":1162,"Ġmais":1163,"imum":1164,"olog":1165,"user":1166,"trib":1167,"Ġtrain":1168,"Ġmethod":1169,"html":1170,"pend":1171,"lot":1172,"True":1173,"Ã®":1174,"Ġsorted":1175,"ry":1176,"Ġlang":1177,"ond":1178,"Ġcar":1179,"my":1180,"items":1181,"ST":1182,"aine":1183,"Ġline":1184,"Ġpd":1185,"ussi":1186,"ĠrÃ©g":1187,"ery":1188,"cond":1189,"node":1190,"Ġfol":1191,"ĠÃ©tÃ©":1192,"Ġdiv":1193,"ĠCom":1194,"Ġcor":1195,"ĠBe":1196,"part":1197,"ick":1198,"----------------":1199,"ranÃ§":1200,"igh":1201,"Ġperm":1202,"Ġtemp":1203,"ets":1204,"Ġsto":1205,"Re":1206,"Ġont":1207,"rig":1208,"Ġses":1209,"..":1210,"ements":1211,"ifier":1212,"Ġinteg":1213,"Ġ!":1214,"ld":1215,"://":1216,"base":1217,"ayer":1218,"fo":1219,"Ġ201":1220,"Ġelements":1221,"lab":1222,"ello":1223,"nums":1224,"Ġann":1225,"size":1226,"random":1227,"Ġjson":1228,"comm":1229,"db":1230,"ĠprÃ©s":1231,"Ġshould":1232,"bin":1233,"ĠAn":1234,"title":1235,"umn":1236,"type":1237,"Ġord":1238,"tract":1239,"ument":1240,"ĠdÃ©c":1241,"Ġfollow":1242,"ons":1243,"Ġtime":1244,"Ġsentence":1245,"Ġdictionary":1246,"iers":1247,"Ġind":1248,"Ãªme":1249,"alis":1250,"Ġconn":1251,"Ġreturns":1252,"sub":1253,"time":1254,"ound":1255,"ous":1256,"lask":1257,"Ġindex":1258,"csv":1259,"Ġspe":1260,"nes":1261,"Ġbas":1262,"ĠAr":1263,"orm":1264,"Ġnombre":1265,"htt":1266,"Ġvers":1267,"Ġpopul":1268,"Ġ!=":1269,"line":1270,"of":1271,"Ġrel":1272,"join":1273,"Ġrec":1274,"Ġaussi":1275,"arget":1276,"quence":1277,"Ġlib":1278,"ines":1279,"vers":1280,"vie":1281,"Ġpol":1282,"Ġ_":1283,"Ġobject":1284,"sp":1285,"roup":1286,"ĠX":1287,"Ġfollowing":1288,"ean":1289,"**":1290,"Ġ''":1291,"ĠÃ©g":1292,"Ġmar":1293,"ulti":1294,"]:":1295,"[:":1296,"start":1297,"Ġop":1298,"ax":1299,"ĠAl":1300,"Ġreverse":1301,"ys":1302,"ĠRe":1303,"Ġz":1304,"Ġ)":1305,"cript":1306,"Ġstart":1307,"Ġfait":1308,"################":1309,"Ġprime":1310,"ĠDesign":1311,"Ġsp":1312,"so":1313,"'])":1314,"Ġsous":1315,"insi":1316,"ork":1317,"ON":1318,"Ġsol":1319,"ranÃ§ais":1320,"Ġvalues":1321,"atures":1322,"aient":1323,"ating":1324,"Ġ['":1325,"Ġpassword":1326,"fig":1327,"ource":1328,"Ġpoint":1329,"riv":1330,"Ġtrans":1331,"ww":1332,"co":1333,"iful":1334,"Ġos":1335,"aset":1336,"autiful":1337,"())":1338,"Ġ{'":1339,"Ġcomp":1340,"Ġdev":1341,"fil":1342,"Ġsearch":1343,"Ġnode":1344,"List":1345,"Ġfirst":1346,"Ġresponse":1347,"Ġ}":1348,"fe":1349,"ere":1350,"IN":1351,"ave":1352,"ĠY":1353,"ia":1354,"Ãł":1355,"state":1356,"Ġdo":1357,"Ġvari":1358,"Soup":1359,"Ġleur":1360,"autifulSoup":1361,"plement":1362,"Ġinst":1363,"args":1364,"ah":1365,"amb":1366,"Ġsup":1367,"ye":1368,"Ġlongest":1369,"Ġdont":1370,"ector":1371,"An":1372,"Ġcette":1373,"En":1374,"lu":1375,"Ġyou":1376,"iqu":1377,"sentence":1378,"ctor":1379,"Ġconvert":1380,"Ġwhich":1381,"elles":1382,"plication":1383,"ĠfranÃ§ais":1384,"cip":1385,"tern":1386,"</":1387,"ante":1388,"ĠBeautifulSoup":1389,"Ġpers":1390,"etwe":1391,"oice":1392,"password":1393,")]":1394,"\".":1395,"Ġutil":1396,"[\"":1397,"lst":1398,"lib":1399,"load":1400,"token":1401,"ency":1402,"etween":1403,"Ġpass":1404,"Ar":1405,"ian":1406,"itÃ©s":1407,"log":1408,"isme":1409,"uild":1410,"oy":1411,"Ġcommun":1412,"ĠDevelop":1413,"PI":1414,"Ġnumpy":1415,"Ġapp":1416,"aint":1417,"Ġprin":1418,"acy":1419,"ative":1420,"ĠSe":1421,"Ġdist":1422,"use":1423,"Ġpubl":1424,"Ġremove":1425,"ret":1426,"ther":1427,"ann":1428,"itial":1429,"ome":1430,"Ġcap":1431,"orld":1432,"Ġthis":1433,"Ġfe":1434,"Ġexp":1435,"rance":1436,"Ġbetween":1437,"Ġcharacters":1438,"vir":1439,"ss":1440,"Ãī":1441,"place":1442,"io":1443,"tk":1444,"eras":1445,"ustom":1446,"req":1447,"ĠgÃ©n":1448,"Ġad":1449,"root":1450,"Un":1451,"Ġport":1452,"ape":1453,"next":1454,"des":1455,"new":1456,"ault":1457,"Ġtype":1458,"amp":1459,"Ġhas":1460,"ames":1461,"uracy":1462,"right":1463,"json":1464,"Ġman":1465,"Ġstore":1466,"iens":1467,"Ġ199":1468,"Ġart":1469,"Ġproduct":1470,"Ġsecond":1471,"puis":1472,"Ġtable":1473,"dit":1474,"Ġprodu":1475,"mp":1476,"rror":1477,"ĠPro":1478,"etter":1479,"AT":1480,"Ġuse":1481,"Ġco":1482,"Ġrepr":1483,"response":1484,"ms":1485,"ake":1486,"Ġpath":1487,"agne":1488,"rypt":1489,"by":1490,"ĠSt":1491,"plic":1492,"Ġainsi":1493,"code":1494,"bl":1495,"ber":1496,"Ġwill":1497,"ĠÃ©galement":1498,"ente":1499,"lower":1500,"board":1501,"lle":1502,"].":1503,"Ġprov":1504,"ref":1505,"verage":1506,"Ġprints":1507,"'s":1508,"Error":1509,"ĠmÃªme":1510,"score":1511,"Ġposs":1512,"Ġgre":1513,"12":1514,"prÃ¨s":1515,"ET":1516,"Ġorder":1517,"ograph":1518,"indow":1519,"ical":1520,"uv":1521,"ES":1522,"Ġmulti":1523,"comp":1524,"._":1525,"actor":1526,"ĠÃª":1527,"Ġgrand":1528,"Ġpeut":1529,"oh":1530,"Ġsim":1531,"Ġpeu":1532,"ores":1533,"ĠIm":1534,"Ã¯":1535,"ables":1536,"ples":1537,"dir":1538,"man":1539,"vice":1540,"point":1541,"return":1542,"uer":1543,"loat":1544,"Ġcert":1545,"tes":1546,"Ġoptim":1547,"Hello":1548,"ĠĠĠĠĠĠĠĠĠĠĠĠĠĠĠĠĠĠĠĠĠĠĠ":1549,"der":1550,"acc":1551,"ender":1552,"gan":1553,"example":1554,"ler":1555,"Ġdire":1556,"values":1557,"Ġ100":1558,"Cl":1559,"Ġcour":1560,"isation":1561,"ision":1562,"ulture":1563,"fin":1564,"vol":1565,"Ġemail":1566,"river":1567,"ĠÃªtre":1568,"ĠEx":1569,"ied":1570,"Ġ15":1571,"Ġdel":1572,"df":1573,"Ġmy":1574,"Ġsoci":1575,"Ġsel":1576,"ĠFrance":1577,"own":1578,"ĠChar":1579,"ten":1580,"Ġurl":1581,"ieu":1582,"Ġparam":1583,"Ġocc":1584,"Ġdataset":1585,"ric":1586,"utes":1587,"ech":1588,"argest":1589,"imes":1590,"plot":1591,"Ġboard":1592,"requency":1593,"cle":1594,"da":1595,"Ġreg":1596,"ĠPrint":1597,"left":1598,"Ġtarget":1599,"Ġeff":1600,"strings":1601,"Ġprincip":1602,"ume":1603,"Ġab":1604,"air":1605,"ĠĠĠĠĠĠĠĠĠĠĠĠĠĠĠĠĠĠĠĠĠĠĠĠĠĠĠĠĠĠĠĠ":1606,"Ġrest":1607,"loc":1608,"uit":1609,"enne":1610,"Ġass":1611,"Ġintegers":1612,"Ġmaximum":1613,"Ġsyst":1614,"amment":1615,"ole":1616,"Ġconst":1617,"Ġmer":1618,"Ġlab":1619,"Ġ[\"":1620,"message":1621,"Ġpopulation":1622,"onne":1623,"Ġpage":1624,"Ġroot":1625,"Ġcharacter":1626,"action":1627,"Ġces":1628,"ĠThis":1629,"ton":1630,"inter":1631,"gl":1632,"choice":1633,"ĠtrÃ¨s":1634,"label":1635,"Ġdoc":1636,"Ġsentiment":1637,"Ch":1638,"Ġpartic":1639,"cription":1640,"yn":1641,"ieurs":1642,"Ġmatrix":1643,"Ġmessage":1644,"ude":1645,"Ġloc":1646,"Name":1647,"Ġelle":1648,"Ġits":1649,"ltk":1650,"'))":1651,"Ġactiv":1652,"100":1653,"Ġrem":1654,"lect":1655,"ĠQ":1656,"ated":1657,"Ġche":1658,"ĠprÃ©":1659,"element":1660,"ĠannÃ©es":1661,"ĠBr":1662,"ango":1663,"ius":1664,"inst":1665,"Ġ'__":1666,"__':":1667,"ars":1668,"alle":1669,"plt":1670,"Ġsoup":1671,"play":1672,"case":1673,"lat":1674,"inary":1675,"Ġdatabase":1676,"18":1677,"ĠĠĠĠĠĠĠĠĊ":1678,"aines":1679,"Ġht":1680,"resent":1681,"Ġage":1682,"eturn":1683,"opt":1684,"Ġlow":1685,"Ġrun":1686,"ouver":1687,"iter":1688,"sorted":1689,"Ġnon":1690,"ĠmÃ©":1691,"ĠgÃ©nÃ©r":1692,"Ġbase":1693,"Åĵ":1694,"Ġlink":1695,"Ġpartie":1696,"istes":1697,"alind":1698,"alindrom":1699,"Ġfr":1700,"Ã¹":1701,"ql":1702,"pect":1703,"Ġcolumn":1704,"lement":1705,"predict":1706,"String":1707,"etime":1708,"ĠCe":1709,"Ġextract":1710,"Ġtrois":1711,"SE":1712,"Ġform":1713,"Al":1714,"work":1715,"ĠÃīt":1716,"lock":1717,"AR":1718,"Ġlui":1719,"uments":1720,"andas":1721,"Ġone":1722,"Ġ<=":1723,"ren":1724,"trans":1725,"ron":1726,"Ġnums":1727,"prime":1728,":\",":1729,"write":1730,"Ã©ment":1731,"rid":1732,"struct":1733,"Ġexcept":1734,"'}":1735,"ites":1736,"eurs":1737,"ĠDans":1738,"Ġvis":1739,"ecute":1740,"ĠrÃ©gion":1741,"ĠĠĠĠĠĠ":1742,"Ġpat":1743,"ete":1744,"ĠFlask":1745,"Âł":1746,"anc":1747,"================":1748,"ĠcrÃ©":1749,"ategor":1750,"This":1751,"Ġnou":1752,"Ġ12":1753,"price":1754,"'],":1755,"odes":1756,"Ġpolit":1757,"search":1758,"nect":1759,"urop":1760,"ĠÃ©tait":1761,"Ã©m":1762,"Ġmost":1763,"aise":1764,"Ġhe":1765,"Ġnation":1766,"ĠUn":1767,"Ġ\"\"":1768,"ession":1769,"LE":1770,"be":1771,"ict":1772,"Ġnltk":1773,"ohn":1774,"Ġpost":1775,"object":1776,"idth":1777,"ĠdÃ©velop":1778,"but":1779,"ĠIf":1780,"Ġdate":1781,"Ġalors":1782,"ename":1783,"Ġbre":1784,"Ġdepuis":1785,"','":1786,"Ġ`":1787,"aly":1788,"Ġlibr":1789,"Ġloop":1790,"Ġopen":1791,"Ġ|":1792,"Ġdom":1793,"Ġany":1794,"tem":1795,"Ġutilis":1796,"uage":1797,"ches":1798,"Ġconc":1799,"Ġcontain":1800,"ĠrÃ©s":1801,"run":1802,"Ġca":1803,"Ġcomput":1804,"Ġ\",":1805,"iÃ¨res":1806,"OR":1807,"Ġmet":1808,"otal":1809,"pose":1810,"ienne":1811,"Ġclassify":1812,"Ġhead":1813,"Ġpandas":1814,"Ġtitle":1815,"Ġ('":1816,"64":1817,"rop":1818,"process":1819,"yp":1820,"ĠreprÃ©s":1821,"rap":1822,"aÃ®":1823,"ĠFibonacci":1824,"content":1825,"lay":1826,"Ġstat":1827,"page":1828,"ĠoÃ¹":1829,"Ġlst":1830,"Ġsign":1831,"igits":1832,"Ġplusieurs":1833,"ual":1834,"'.":1835,"Ġgra":1836,"info":1837,"Ġspec":1838,"ugh":1839,"Ġcent":1840,"Ġmethods":1841,"ized":1842,"rect":1843,"tres":1844,"ĠÂ»,":1845,"Ġfut":1846,"Ã¨me":1847,"email":1848,"ĠGet":1849,"Ġje":1850,"raw":1851,"ursor":1852,"Ġright":1853,"ĠParis":1854,"]]":1855,"Ġpredict":1856,"mi":1857,"ivers":1858,"viron":1859,"ateur":1860,"Ġcommand":1861,"matrix":1862,"echn":1863,"Ġgr":1864,"opy":1865,"rough":1866,"Ġunique":1867,"jango":1868,"Ġvie":1869,"Ġvalid":1870,"param":1871,"cend":1872,"Ġans":1873,"RL":1874,"Ġ17":1875,"div":1876,"tag":1877,"Ġformat":1878,"ov":1879,"ific":1880,"Ġthrough":1881,"Ã´t":1882,"ambda":1883,"lob":1884,"50":1885,"ection":1886,"Ġover":1887,"ologie":1888,"else":1889,"Ġopt":1890,"https":1891,"Ã¨ne":1892,"itive":1893,"ĠTra":1894,"omm":1895,"agn":1896,"Ġlors":1897,"Ġpuis":1898,"etters":1899,"dat":1900,"Ġconf":1901,"''":1902,"Ġnotamment":1903,"pty":1904,"ML":1905,"Ġcin":1906,"clo":1907,"Ġville":1908,"formation":1909,"Ġac":1910,"uses":1911,"ĠdÃ©part":1912,"view":1913,"ules":1914,"output":1915,"parser":1916,"NT":1917,"=['":1918,"exp":1919,"alindrome":1920,"ives":1921,"ĠAPI":1922,"Ġleft":1923,"table":1924,"fic":1925,"li":1926,"parse":1927,"Ġcommon":1928,"Ġhave":1929,"Ġread":1930,"Ġfa":1931,"arning":1932,"rou":1933,"cor":1934,"Ã©tÃ©":1935,"Ġcontre":1936,"((":1937,"ded":1938,"Ġ\")":1939,"ĠaprÃ¨s":1940,"Ġfon":1941,"ep":1942,"ĠReturn":1943,"Ġargs":1944,"iÃ©":1945,"Ġ198":1946,"publ":1947,"ĠÃĢ":1948,"ĠSaint":1949,"ĠdÃ©s":1950,"ĠTo":1951,"pond":1952,"ustomer":1953,"Ġtry":1954,"Ġeven":1955,"with":1956,"site":1957,"reg":1958,"eters":1959,"Ġjus":1960,"Ġpremier":1961,"error":1962,"ĠAu":1963,"Ġhigh":1964,"position":1965,"ĠMar":1966,"Ã©rie":1967,"Ġbreak":1968,"Val":1969,"Ġmus":1970,"emplo":1971,"ances":1972,"stru":1973,"onc":1974,"Ġquery":1975,"Ġresults":1976,"ounter":1977,"rande":1978,"qual":1979,"ĉĉĉ":1980,"Ġsys":1981,"Ġdonn":1982,"ater":1983,"ĠĠĠĠĠĠĠĠĠ":1984,"owels":1985,"ĠÂ».":1986,"itialize":1987,"IT":1988,"ger":1989,"Ġid":1990,"dis":1991,"Ġother":1992,"ĠrÃ©alis":1993,"Ġret":1994,"Ġmonde":1995,"cre":1996,"ustr":1997,"Reg":1998,"Ġins":1999,"Ġdict":2000,"Ġcontin":2001,"Ġscore":2002,"Ġ11":2003,"Class":2004,"az":2005,"wh":2006,"old":2007,"uff":2008,"ellement":2009,"Ã©ric":2010,"Num":2011,"Ġtf":2012,"Ġ[[":2013,"ana":2014,"istor":2015,"conn":2016,"ĠOn":2017,"Ġtree":2018,"ĠTh":2019,"http":2020,"25":2021,"(),":2022,"quare":2023,"cher":2024,"mall":2025,"ish":2026,"ĠdiffÃ©r":2027,"esp":2028,"ified":2029,"igne":2030,"valu":2031,"dition":2032,"Ġitems":2033,"Ġoper":2034,"Ġfo":2035,"lem":2036,"Ġ//":2037,"Ġfilter":2038,"met":2039,"Ġ\\":2040,"ĠLo":2041,"icense":2042,"ote":2043,"RE":2044,"Ġtout":2045,"Ġversion":2046,"itt":2047,"nement":2048,"Ġletter":2049,"Ġfound":2050,"emble":2051,"ectorizer":2052,"emple":2053,"ĠÃ©c":2054,"Ġsans":2055,"alitÃ©":2056,"Ġ197":2057,"RO":2058,"Ġmain":2059,"Ġdur":2060,"Ġsud":2061,"Ġmil":2062,"api":2063,"Ġthan":2064,"Ġbl":2065,"Ġapplication":2066,"Ġprocess":2067,"().":2068,"ik":2069,"Enter":2070,"Ġplayer":2071,"ĠCl":2072,"Ġrep":2073,"cent":2074,"ose":2075,"ĠâĢ":2076,"AC":2077,"Ġlargest":2078,"Ġmem":2079,"org":2080,"istoire":2081,"query":2082,"Ġtechn":2083,"actorial":2084,"Ġcontent":2085,"Ġpersonn":2086,"Ġtrav":2087,"fÃ©r":2088,"abil":2089,"Ġautres":2090,"ĠdÃ©velopp":2091,"Ġbinary":2092,"Ġcou":2093,"product":2094,"32":2095,"Data":2096,"ze":2097,"Ġcr":2098,"ĠCor":2099,"Ġparse":2100,"dist":2101,"total":2102,"Ġmoins":2103,"Ġparticul":2104,"]))":2105,"Ġdern":2106,"www":2107,"layers":2108,"Ġwrite":2109,"Ġcel":2110,"mer":2111,"map":2112,"ĠElle":2113,"Ġrom":2114,"ipp":2115,"Ġpouv":2116,"Ã¨res":2117,"fix":2118,"autres":2119,"ired":2120,"field":2121,"ĠpÃ©ri":2122,"md":2123,"host":2124,"\",\"":2125,"Ġsucc":2126,"ade":2127,"dictions":2128,"mar":2129,"ĠCheck":2130,"ros":2131,"ĠHT":2132,"Ġcurr":2133,"imal":2134,"antes":2135,"zer":2136,"udent":2137,"St":2138,"Ġaverage":2139,"Pro":2140,"sel":2141,"route":2142,"None":2143,"Ġsequence":2144,"mb":2145,"vi":2146,"Ġbien":2147,"angle":2148,"Ġsize":2149,"Ġmean":2150,"jet":2151,"Ġinteger":2152,"ner":2153,"Ġpy":2154,"Ġculture":2155,"Ġmake":2156,"Ġ25":2157,"Field":2158,"long":2159,"Ġincl":2160,"Ġbs":2161,"mean":2162,"DE":2163,"ĠCette":2164,"False":2165,"('/":2166,"randint":2167,"ieux":2168,"Ġprice":2169,"Ġdivis":2170,"Ġjusqu":2171,"Ã©v":2172,"Ġcall":2173,"quent":2174,"Ġmid":2175,"200":2176,"ĠÃītats":2177,"},":2178,"Ġdf":2179,"execute":2180,"Ġcas":2181,"aries":2182,"tree":2183,"ĠpremiÃ¨re":2184,"Ġrap":2185,"Ġdb":2186,"imit":2187,"Ġsal":2188,"Ġnext":2189,"ception":2190,"python":2191,"ĠRÃ©":2192,"Ġcalcul":2193,"ĠÃ©l":2194,"Se":2195,"AL":2196,"post":2197,"models":2198,"ĠNode":2199,"cket":2200,"Ġext":2201,"cii":2202,"Ġtri":2203,"stat":2204,"Ġplace":2205,"Ġcapit":2206,"ĠreprÃ©sent":2207,"Ġprop":2208,"Ġrev":2209,"Ġtheir":2210,"ĠWorld":2211,"Ġtoken":2212,"Ãīt":2213,"plicates":2214,"rol":2215,"ises":2216,"ody":2217,"request":2218,"eter":2219,"Ġfl":2220,"aces":2221,"ouvent":2222,"pred":2223,"pop":2224,"Ġsci":2225,"Ġgrande":2226,"keys":2227,"icle":2228,"Ġscra":2229,"Ġroy":2230,"Ġmerge":2231,"istr":2232,"edian":2233,"doc":2234,"Ġli":2235,"Ġclo":2236,"Ġactivation":2237,"ĠdÃ©partement":2238,"serv":2239,"Ġstruct":2240,"Ġencore":2241,"Ġvo":2242,"uerre":2243,"tect":2244,"Ġ>=":2245,"aw":2246,"Ġnord":2247,"illes":2248,"phab":2249,"Ġposition":2250,"ĠJean":2251,"Ġcontr":2252,"ols":2253,"aiss":2254,"--------------------------------":2255,"keras":2256,"Ġgroup":2257,"30":2258,"Ġfort":2259,"ply":2260,"common":2261,"mon":2262,"Ġbut":2263,"Ġorig":2264,"und":2265,"ings":2266,"ĠDriver":2267,"kens":2268,"ords":2269,"Ġpolitique":2270,"ension":2271,"Ġexist":2272,"Ġimplement":2273,"Ġsitu":2274,"ides":2275,"ache":2276,"Ġnouve":2277,"sequence":2278,"\"))":2279,"Ġorgan":2280,"Ġtk":2281,"Ã©ra":2282,"ĠAp":2283,"cial":2284,"Ġfloat":2285,"ographie":2286,"11":2287,"Ġsource":2288,"aison":2289,"Ġlast":2290,"ally":2291,"Ġperform":2292,"Ġlists":2293,"valid":2294,"ural":2295,"ta":2296,"pendant":2297,"Regression":2298,"Ġdro":2299,"Ġpu":2300,"Ġident":2301,"group":2302,"Ġ16":2303,"Ġtop":2304,"cal":2305,"Ġdatetime":2306,"{}":2307,"Ġrequ":2308,"ash":2309,"CT":2310,"Ġconsid":2311,"Ġflask":2312,"Ġlat":2313,"gative":2314,"gre":2315,"Ġdefault":2316,"ĠDef":2317,"Ġgame":2318,"ĠConstruct":2319,"ves":2320,"Ġcro":2321,"Ġleurs":2322,"iÃ¨me":2323,"Ġarea":2324,"Ġgouver":2325,"replace":2326,"Ġfrequency":2327,"oph":2328,"ĠdÃ©f":2329,"Ġcolle":2330,"Ġterrit":2331,"ull":2332,"Ġavant":2333,"15":2334,"Ġtag":2335,"Ġcompt":2336,"Ġfond":2337,"Ġsoit":2338,"gra":2339,"Ġsouvent":2340,"ctu":2341,"Ġcontains":2342,"Ġcur":2343,"Ġrad":2344,"config":2345,"shape":2346,"ĠZ":2347,"aur":2348,"Ġver":2349,"erence":2350,"Res":2351,"Ġchim":2352,"Ġ-=":2353,"Ġcre":2354,"emper":2355,"ĠFunction":2356,"Ġ**":2357,"transform":2358,"ĠURL":2359,"ascii":2360,"Ġanci":2361,"pack":2362,"ĠImplement":2363,"Ġmatch":2364,"Ġsuiv":2365,"freq":2366,"PO":2367,"Ġcompos":2368,"Ġvol":2369,"Ġpoints":2370,"temp":2371,"current":2372,"link":2373,"atique":2374,"sed":2375,"idx":2376,"Ġpartir":2377,"sec":2378,"su":2379,"Ġintern":2380,"mod":2381,"Ãªt":2382,"Ġexemple":2383,"Ġiter":2384,".__":2385,"del":2386,"apon":2387,"Ġ'''":2388,"conom":2389,"attr":2390,"Ġmath":2391,"ivement":2392,"etch":2393,"ĠCar":2394,"env":2395,"orig":2396,"Ġattrib":2397,"ditions":2398,"cursor":2399,"John":2400,"fois":2401,"ane":2402,"otes":2403,"Ġcir":2404,"elp":2405,"Ġforme":2406,"Ġhand":2407,"elsius":2408,"ĠlÃ©g":2409,"Ã¢te":2410,"cending":2411,"Ġfeatures":2412,"ĠPre":2413,"ĠQu":2414,"aume":2415,"ory":2416,"Ġjou":2417,"features":2418,"Ġaddress":2419,"################################":2420,"Ex":2421,"nent":2422,"ĠthÃ©":2423,"elements":2424,"Ġupdate":2425,"Ã»":2426,"AB":2427,"ges":2428,"Ġtwe":2429,"Ġsn":2430,"etwork":2431,"td":2432,"Ġfactorial":2433,"lev":2434,"Dense":2435,"ĠprÃ©c":2436,"Ġyour":2437,"Ġbook":2438,"Ġquick":2439,"Ġ30":2440,"Ġaccuracy":2441,"Ġcours":2442,"apt":2443,"Ġempty":2444,"Ġgen":2445,"Ġused":2446,"back":2447,"ypes":2448,"bug":2449,"ming":2450,"Ġpossible":2451,"Ġcell":2452,"Ġtit":2453,"Ġcombin":2454,"uve":2455,"Ġmort":2456,"Ġlearning":2457,"UT":2458,"rec":2459,"respond":2460,"17":2461,"Ġkeras":2462,"ĠArt":2463,"{'":2464,"ĠUne":2465,"Ġlinear":2466,"Ġref":2467,"16":2468,"Element":2469,"rent":2470,"icles":2471,"Ġgu":2472,"Ġ--":2473,"Ġmaj":2474,"Ġwebsite":2475,")))":2476,"sol":2477,"ateurs":2478,"Ġhtml":2479,"Ġmot":2480,"bot":2481,"ĠdÃ©but":2482,"Ġclassifier":2483,"pat":2484,"version":2485,"Unis":2486,"lambda":2487,"ifs":2488,"Ġrelig":2489,"requent":2490,"ares":2491,"abl":2492,"Ġinstall":2493,"Ġbased":2494,"Ġfibonacci":2495,"asse":2496,"ĠPl":2497,"ighb":2498,"gment":2499,"ĠsiÃ¨":2500,"ĠLicense":2501,"Ġdp":2502,"poque":2503,"face":2504,"Ġplt":2505,"Ã©ro":2506,"Ġdonc":2507,"Ġcad":2508,"oll":2509,"Ġmondi":2510,"phabet":2511,"rics":2512,"To":2513,"ĠnÃ©":2514,"prop":2515,".\")":2516,"Ġcath":2517,"Ġlower":2518,"ÂłÂł":2519,"Ġcontaining":2520,"aque":2521,"sy":2522,"Ġdec":2523,"lease":2524,"Ġodd":2525,"Ġdisplay":2526,"diction":2527,"ormal":2528,"Ġquel":2529,"Ġmach":2530,"Ġfois":2531,"book":2532,"cr":2533,"Classifier":2534,"IC":2535,"14":2536,"hor":2537,"Ġconfig":2538,"Ġcelle":2539,"Ã´le":2540,"Ġnombreux":2541,"Ġag":2542,"resh":2543,"valuate":2544,"ensor":2545,"Ġcanc":2546,"Ãītat":2547,"ĠHTML":2548,"igit":2549,"ĠDefine":2550,"[-":2551,"istic":2552,"ĠĠĠĠĠĠĠĠĠĠĠĠĠĠĠĠĠĠĠĠĠĠĠĠ":2553,"close":2554,"rate":2555,"ĠCalculate":2556,"Ġupper":2557,"ush":2558,"occ":2559,"mallest":2560,"Ġ',":2561,"Ġcorrespond":2562,"Or":2563,"ones":2564,"Ġlanguage":2565,"uropÃ©":2566,"Ġmont":2567,"Ġroi":2568,"Ġdistance":2569,"EN":2570,"Ġme":2571,"Ġ196":2572,"ather":2573,"agram":2574,"yle":2575,"Ġhum":2576,"Ġappel":2577,"Ne":2578,"Ġtask":2579,"try":2580,"child":2581,"Ġinf":2582,"Ġminimum":2583,"Ġsyn":2584,"eff":2585,"enu":2586,"Ġtour":2587,"server":2588,"Ġmodule":2589,"SON":2590,"Ġserver":2591,"Ġ(\"":2592,"Ġmoy":2593,"ĠInitialize":2594,"Ġstructure":2595,"Ġonly":2596,"Ġsubstring":2597,"tx":2598,"Ġtemps":2599,"check":2600,"Ġcolor":2601,"ĠamÃ©ric":2602,"ahren":2603,"Ġ@":2604,"heit":2605,"spe":2606,"Ġinformation":2607,"Ġ')":2608,"Ġbr":2609,"Ġcompl":2610,"ĠCes":2611,"Ġtous":2612,"Ġye":2613,"upper":2614,"Ġbest":2615,"99":2616,"Ġfilm":2617,"create":2618,"ahrenheit":2619,"itaire":2620,"ptimize":2621,"method":2622,"width":2623,"Ġdetect":2624,"ĠÃ©v":2625,"address":2626,"instance":2627,"Ġrepresent":2628,"itude":2629,"sv":2630,"cies":2631,":]":2632,"ĠIter":2633,"Ġlibrary":2634,"'):":2635,"ĠmÃ©t":2636,"charact":2637,"Ġprovide":2638,"Ġselon":2639,"Ġdocument":2640,"ID":2641,"Ġquat":2642,"ĠÃ©conom":2643,"ĠprÃ©sident":2644,"Ġlabels":2645,"order":2646,"Ġencrypt":2647,"inal":2648,"Ġgener":2649,"Ġstack":2650,"Ġlangue":2651,"accuracy":2652,"Ġpouvoir":2653,"flow":2654,"soup":2655,"Ġaff":2656,"ĠAdd":2657,"Ġexpression":2658,"ĠSud":2659,"unc":2660,"Ġren":2661,"Ġenviron":2662,"Ġparameters":2663,"Ġinsert":2664,"Ġcost":2665,"Ġinternation":2666,".\"":2667,"Ã¨te":2668,":-":2669,"Ġno":2670,"Ġthem":2671,"ivot":2672,"endre":2673,"Ġpet":2674,"Ġcaract":2675,"AM":2676,"land":2677,"endant":2678,"inear":2679,"Ġfam":2680,"Ġvowels":2681,"Ġbi":2682,"Ã©ration":2683,"connect":2684,"45":2685,"Ġemplo":2686,"inf":2687,"Ġsql":2688,"Ġmark":2689,"window":2690,"Ġmal":2691,"Ġraise":2692,"Ġabo":2693,"Ġpermet":2694,"Ġjsonify":2695,"ock":2696,"ĠsÃ©":2697,"Ġsuite":2698,"cat":2699,"ination":2700,"oding":2701,"Ġdefine":2702,"wo":2703,"ank":2704,"Ġfonction":2705,"grid":2706,"oi":2707,"volution":2708,"ware":2709,"Par":2710,"andard":2711,"vis":2712,"ĠrÃ©fÃ©r":2713,"ey":2714,"onom":2715,"ĠPour":2716,"ources":2717,"Ġgo":2718,"ission":2719,"err":2720,"ĠTest":2721,"pol":2722,"target":2723,"ĠĠĠĠĠĠĊ":2724,"Ġnature":2725,"ĠCa":2726,"ctory":2727,"mÃ©":2728,"np":2729,"rans":2730,"abit":2731,"ĠTrain":2732,"digits":2733,"tp":2734,"Ġdest":2735,"ited":2736,"aud":2737,"stem":2738,"Ġstock":2739,"').":2740,":',":2741,"sing":2742,"ĠpÃ©riode":2743,"names":2744,"Ġcelui":2745,"Ġbuild":2746,"ĠBuild":2747,"Ġchr":2748,"longest":2749,"Ġpublic":2750,"Ġthen":2751,"filter":2752,"relu":2753,"ĠNe":2754,"mid":2755,"att":2756,"ierre":2757,"QL":2758,"ization":2759,"dire":2760,"orn":2761,"itions":2762,"ĠSh":2763,"bar":2764,"Ġfit":2765,"image":2766,"plac":2767,"umer":2768,"Ġprof":2769,"ĠrÃ©c":2770,"ava":2771,"ĠPr":2772,"!\")":2773,"Ġesp":2774,"Ġcustomer":2775,"ils":2776,"box":2777,"Ġpermut":2778,"Åĵuv":2779,"assert":2780,"oss":2781,"not":2782,"cost":2783,"ival":2784,"Ġcompr":2785,"plex":2786,"Ġparent":2787,"Ġfiles":2788,"ĠeuropÃ©":2789,"ĠVal":2790,"status":2791,"ĠMake":2792,"player":2793,"ĠSel":2794,"udes":2795,"13":2796,"AS":2797,"Ġhistor":2798,"Ġsplit":2799,"0000":2800,"Ġtake":2801,"entes":2802,"Ġcuis":2803,"Ġquant":2804,"Ġmachine":2805,"gen":2806,"Ġnive":2807,"scores":2808,"column":2809,"aÃ¯":2810,"ennes":2811,"arm":2812,"arity":2813,"iles":2814,"ĠSplit":2815,"ights":2816,"Ġbasic":2817,"[:,":2818,"Ġsame":2819,"ĠCan":2820,"tokenize":2821,"first":2822,"uple":2823,"obj":2824,"wargs":2825,"Ġpattern":2826,"selection":2827,"cd":2828,"remove":2829,"roupe":2830,"21":2831,"mine":2832,"Ġlieu":2833,"utf":2834,"yee":2835,"Vectorizer":2836,"Ġsi":2837,"radi":2838,"Ġgouvernement":2839,"ĠIterate":2840,"embre":2841,"ails":2842,"ĉĉĉĉ":2843,"fs":2844,"Ġcertains":2845,"stack":2846,"ourd":2847,"unctu":2848,"ĠJSON":2849,"show":2850,"points":2851,"ĠdÃ©m":2852,"ether":2853,"dim":2854,"aille":2855,"compile":2856,"ĠcinÃ©":2857,"qr":2858,"Ġnouveau":2859,"Ġcategor":2860,"alance":2861,"encode":2862,"Ġreversed":2863,"De":2864,"Ġu":2865,"Ġamount":2866,"Ġcompute":2867,"year":2868,"aissance":2869,"Ġfont":2870,"iquement":2871,"Ġconstitu":2872,"icient":2873,"erson":2874,"username":2875,"strip":2876,"xx":2877,"Ãªte":2878,"description":2879,"Ġlabel":2880,"publique":2881,"Ã¢teau":2882,"Ġhelp":2883,"ouvelle":2884,"erg":2885,"Ġmill":2886,"Ġmore":2887,"ĠfranÃ§aise":2888,"Ġhaut":2889,"Ġgreater":2890,"Python":2891,"})":2892,"red":2893,"omme":2894,"Ġ13":2895,"Ã©rieur":2896,"filename":2897,"body":2898,"Ġfield":2899,"Ġsnipp":2900,"Value":2901,"off":2902,"pth":2903,"linear":2904,"ĠLinear":2905,"Ġoffic":2906,"gric":2907,"nection":2908,"ĠsystÃ¨me":2909,"quential":2910,"float":2911,"uy":2912,"Ġpositive":2913,"Fr":2914,"reverse":2915,"ande":2916,"ĠAm":2917,"=(":2918,"range":2919,"Ġusers":2920,"Ġbou":2921,"Ġappar":2922,"Ġanagram":2923,"Ġdistrib":2924,"Sort":2925,"ball":2926,"ments":2927,"Ġdou":2928,"Ġclient":2929,"ĠdÃ©veloppement":2930,"Ġcounts":2931,"Ġservice":2932,"function":2933,"Ġquest":2934,"LO":2935,"alled":2936,"Ġtraining":2937,"Ġlay":2938,"ards":2939,"uel":2940,"Ġmedian":2941,"40":2942,")-":2943,"Ġant":2944,"struction":2945,"Ġguerre":2946,"ports":2947,"top":2948,"Ġed":2949,"Ġ50":2950,"AN":2951,"Ġ''.":2952,"Ġcommer":2953,"'),":2954,"uc":2955,"aÃ®t":2956,"SI":2957,"ĠÃ©lect":2958,"source":2959,"ĠÃ©taient":2960,"Ġfact":2961,"Ġtoute":2962,"default":2963,"Ġ</":2964,"Ãªtre":2965,"Ġarguments":2966,"pattern":2967,"(__":2968,"ness":2969,"ĠCount":2970,"lobal":2971,"entre":2972,"vector":2973,"Ã©rique":2974,"ownload":2975,"ium":2976,"Ġparser":2977,"Ġquatre":2978,"rat":2979,"ĠPh":2980,"Ġdescription":2981,"ĠSo":2982,"generate":2983,"ionn":2984,"Ã©rÃ©":2985,"frame":2986,"bres":2987,"enant":2988,"Ġtradition":2989,"sentiment":2990,"Ġdelete":2991,"letters":2992,"feature":2993,"while":2994,"cap":2995,"000":2996,"fl":2997,"Ġcal":2998,"Ã¢t":2999,"soci":3000,"Ġax":3001,"itch":3002,"33":3003,"ek":3004,"Ġfaire":3005,"ouis":3006,"ĠFind":3007,"ĠOptimize":3008,"ful":3009,"Number":3010,"Ġmodels":3011,"Ġsimple":3012,"GET":3013,"imat":3014,"plotlib":3015,"oint":3016,"Ġaction":3017,"Ġsets":3018,"Ġvariables":3019,"ĠLoad":3020,"omial":3021,"ubble":3022,"Ġdivers":3023,"Ġwhether":3024,"insert":3025,"Ġdirect":3026,"Ġfem":3027,"ĠFran":3028,"Ġavait":3029,"Ġfer":3030,"Ġpredictions":3031,"ids":3032,"ministr":3033,"Ġsnippet":3034,"Tree":3035,"Ġfreq":3036,"ĠprÃ©sent":3037,"Ġsquare":3038,"Ġoptimize":3039,"Max":3040,"urb":3041,"Con":3042,"categor":3043,"game":3044,"Ġcommunes":3045,"IS":3046,"hand":3047,"rÃ¨s":3048,"wer":3049,"unique":3050,"Ġequal":3051,"esse":3052,"Ã¨g":3053,"Ġsqlite":3054,"task":3055,"Ġchild":3056,"Ġrows":3057,"Ġavoir":3058,"gn":3059,"last":3060,"lines":3061,"ielle":3062,"ĠUse":3063,"Ġess":3064,"Ã¨de":3065,"tf":3066,"xml":3067,"Ġdeven":3068,"File":3069,"utions":3070,"ivre":3071,"Ġ40":3072,"Ġnombreuses":3073,"ength":3074,"Ġ\"))":3075,"Ġsystem":3076,"extr":3077,"Ġseule":3078,"Ġpriv":3079,"erie":3080,"Ġvariable":3081,"Ġsuper":3082,"sys":3083,"ĠtÃ©l":3084,"Ġdiffer":3085,"rc":3086,"ities":3087,"Ã¨le":3088,"pher":3089,"ipel":3090,"POST":3091,"embl":3092,"ĠÃ©tant":3093,"Ã¨nes":3094,"ongo":3095,"Ġ'.":3096,"Ġmode":3097,"[::-":3098,")+":3099,"go":3100,"Ġils":3101,"Ġreste":3102,"================================":3103,"distance":3104,"Ġnational":3105,"Ġniveau":3106,"ca":3107,"ourn":3108,"aster":3109,"Ġlibraries":3110,"Am":3111,"Ġpair":3112,"usr":3113,"characters":3114,"fÃ©":3115,"Ġpivot":3116,"Ġtou":3117,"ĠĠĠĠĠĠĠĠĠĠĠĠĠĠĠĠĠĠĠĠĠĠĠĠĠĠĠ":3118,"labels":3119,"origine":3120,"clf":3121,"Ġargument":3122,"ivid":3123,"Ġhost":3124,"Ġautre":3125,"Ġcompte":3126,");":3127,"SER":3128,"la":3129,"Ġletters":3130,"Ġ{\"":3131,"auc":3132,"Ġdevient":3133,"Ġcollections":3134,"hello":3135,"enn":3136,"Ġsing":3137,"Ġ14":3138,"Ġthree":3139,"lemagne":3140,"Ġcy":3141,"ensemble":3142,"ĠLog":3143,"Ġpeuvent":3144,"chars":3145,"$$":3146,"params":3147,"hed":3148,"ower":3149,"Ġmovie":3150,"Mar":3151,"ĠÃ©qu":3152,"hat":3153,"rice":3154,"encies":3155,"ĠConvert":3156,"ook":3157,"send":3158,"Ġlitt":3159,"Ã©qu":3160,"area":3161,"local":3162,"Ġnames":3163,"Ġretr":3164,"urope":3165,"ning":3166,"opulation":3167,"ĠGiven":3168,"For":3169,"Ġmatplotlib":3170,"Ġsmallest":3171,"ĠĠĠĠĠĠĠĠĠĠĠĠĠ":3172,"ging":3173,"Ġtemper":3174,"Ġprev":3175,"Ġsolution":3176,"eau":3177,"atch":3178,"Ġgraph":3179,"img":3180,"22":3181,"ox":3182,"Ġpalindrome":3183,"Ã¨mes":3184,"parent":3185,"Ġterritoire":3186,"Dict":3187,"diff":3188,"ĠĠĠĊ":3189,"ĠSet":3190,"ram":3191,"Ġoptions":3192,"hui":3193,"udi":3194,"urent":3195,"ister":3196,"Ġcuisine":3197,"Ġ\"__":3198,"jourd":3199,"erc":3200,"Ġkeys":3201,"ici":3202,"Ġetc":3203,"ĠListe":3204,"ĠLinearRegression":3205,"atif":3206,"Ã¨se":3207,"substring":3208,"Ġquelques":3209,"aul":3210,"oritÃ©":3211,"ĠCal":3212,"Ġwindow":3213,"frequency":3214,"Ġsens":3215,"Ġchaque":3216,"Ġcentre":3217,"Ġrender":3218,"ED":3219,"Ġci":3220,"oud":3221,"alyzer":3222,"NB":3223,"ira":3224,"imin":3225,"__)":3226,"Ġfunctions":3227,"Ġ&":3228,"__\":":3229,"Ġchez":3230,"unctuation":3231,"Ġpres":3232,"Ġcrit":3233,"open":3234,"mail":3235,"ĠCode":3236,"ĠList":3237,"Ġcompare":3238,"NU":3239,"Ġrequired":3240,"yant":3241,"Ġqueue":3242,"most":3243,"even":3244,"Ġseen":3245,"...":3246,"dom":3247,"Ġcult":3248,"Ġyear":3249,"den":3250,"istique":3251,"ĠdÃ©p":3252,"ĠComp":3253,"ĠcafÃ©":3254,"Ã´te":3255,"Ġ]":3256,"alys":3257,"grÃ©":3258,"ĠNotes":3259,"Ġheight":3260,"ipe":3261,"uration":3262,"ifi":3263,"django":3264,"erv":3265,"zz":3266,"Ġencode":3267,"aff":3268,"Ġdigits":3269,"eries":3270,"Ġdeter":3271,"42":3272,"Sum":3273,"Ġfig":3274,"Ġmouv":3275,"section":3276,"Ã¨rent":3277,"ader":3278,"ability":3279,"ayes":3280,"'''":3281,"Ġinclude":3282,"Ġfeature":3283,"itution":3284,"ĠdÃ©cl":3285,"ĠCounter":3286,"Ġwidth":3287,"Ġtrouve":3288,"Ġtensor":3289,"Ġpresent":3290,"plate":3291,"counts":3292,"ĠCharles":3293,"Ġspecified":3294,"ĠdonnÃ©es":3295,"ibles":3296,"color":3297,"Ġcase":3298,"fields":3299,"omb":3300,"ftware":3301,"mpire":3302,"Ã©pend":3303,"Ġerror":3304,"Ġnouvelle":3305,"ettes":3306,"fibonacci":3307,"Ġfran":3308,"cessary":3309,"UR":3310,"ili":3311,"Ġcontact":3312,"issement":3313,"iennent":3314,"uf":3315,"Ġlimit":3316,"lex":3317,"Ġju":3318,"author":3319,"ĠgÃ©nÃ©ral":3320,"Ã©sil":3321,"issance":3322,"latten":3323,"ĠCaen":3324,"OT":3325,"Ġpack":3326,"Ġoccurr":3327,"IL":3328,"height":3329,"Ġseries":3330,"dam":3331,"na":3332,"ĠprÃ¨s":3333,"ube":3334,"ĠGener":3335,"Ġterme":3336,"Ġeffet":3337,"activ":3338,"Cont":3339,"ĠchÃ¢teau":3340,"Ġserv":3341,"Text":3342,"Ġpendant":3343,"Ġinitial":3344,"Ġdifferent":3345,"\"])":3346,"80":3347,"tout":3348,"match":3349,"level":3350,"Ġtourn":3351,"Ġprob":3352,"Ġcomb":3353,"ĠNord":3354,"Ġstudent":3355,"ĠspÃ©":3356,"ĠYou":3357,"ĠFor":3358,"'t":3359,"day":3360,"seil":3361,"Ġproduction":3362,"apple":3363,"]+":3364,"ĠLouis":3365,"ĠGu":3366,"Ġenter":3367,"Ġload":3368,"II":3369,"Type":3370,"exist":3371,"Ġjeu":3372,"CO":3373,"ĠCol":3374,"iÃ¨rement":3375,"ROM":3376,"ts":3377,"debug":3378,"Ġjob":3379,"Ġspecific":3380,"Ġhighest":3381,"mode":3382,"pen":3383,"mov":3384,"Ġcontinue":3385,"dec":3386,"ĠĠĠĠĠĠĠĠĠĠĠĠĊ":3387,"Col":3388,"edia":3389,"Ġcontext":3390,"90":3391,"rab":3392,"ĠAut":3393,"umerate":3394,"now":3395,"Ġreplace":3396,"Ġwas":3397,"Ġcomplex":3398,"Ġplan":3399,"Ġsuch":3400,"graph":3401,"Ġsw":3402,"Ã©poque":3403,"core":3404,"era":3405,"ĠSort":3406,"Frame":3407,"letter":3408,"Ġpal":3409,"usion":3410,"Ġbar":3411,"location":3412,"dataset":3413,"}')":3414,"inÃ©":3415,"ĠAN":3416,"Ġhabit":3417,"Ġdivisible":3418,"gh":3419,"Ã©tique":3420,"Ġsav":3421,"Ġnetwork":3422,"oles":3423,"duplicates":3424,"Ġdirectory":3425,"txt":3426,"the":3427,"Ġayant":3428,"Ġhy":3429,"Ġ32":3430,"come":3431,"]])":3432,"histoire":3433,"gs":3434,"Ġcle":3435,"Ã¢ce":3436,"onomie":3437,"HO":3438,"Ġbot":3439,"Ġenumerate":3440,"idf":3441,"anguage":3442,"onnement":3443,"ĠÃ©lÃ©ment":3444,"kwargs":3445,"ases":3446,"client":3447,"Ġhash":3448,"Ġtensorflow":3449,"(-":3450,"Ġblock":3451,"web":3452,"views":3453,"erne":3454,"organ":3455,"ernes":3456,"average":3457,"iellement":3458,"Ġvert":3459,"ĠData":3460,"Ġ195":3461,"Ġscraper":3462,"Ġciv":3463,"Ġgroupe":3464,"Ġvector":3465,"Ġsec":3466,"Ġstop":3467,"pons":3468,"Ġcolumns":3469,"ĠrÃ¨g":3470,"'].":3471,"command":3472,"01":3473,"AD":3474,"amples":3475,"ĠCharlemagne":3476,"Ġback":3477,"ĠIs":3478,"Ġmove":3479,"Ġtokens":3480,"ĠSon":3481,"blem":3482,"ls":3483,"rie":3484,"=[":3485,"Ġstate":3486,"datetime":3487,"Le":3488,"quares":3489,"lection":3490,"ulaire":3491,"ouest":3492,"duit":3493,"Result":3494,"ighbors":3495,"no":3496,"Ġwhere":3497,"fric":3498,"Com":3499,"IM":3500,"af":3501,"block":3502,"population":3503,"ypt":3504,"Ġsend":3505,"cesse":3506,"Ġboth":3507,"AP":3508,"ym":3509,"cteur":3510,"Ġparfois":3511,"Ġinstance":3512,"ĠÃ©conomique":3513,"Ap":3514,"Ġalphabet":3515,"Ġatt":3516,"Ġpermett":3517,"Ġlinks":3518,".\"\"\"":3519,"Ġinv":3520,"ĠUsing":3521,"Ġentr":3522,"Ġbel":3523,"ibil":3524,"plicate":3525,"Sub":3526,"Ġdurant":3527,"24":3528,":\")":3529,"Ġcv":3530,"Ġrecher":3531,"istre":3532,"Ġabout":3533,"qrt":3534,"Ġsept":3535,"poch":3536,"Ġfilename":3537,"ĠImport":3538,"ifique":3539,"âĢ¦":3540,"Ġnecessary":3541,"abel":3542,"Ġwhen":3543,"ĠAprÃ¨s":3544,"Ġassoci":3545,"ĠsociÃ©tÃ©":3546,"Ġnationale":3547,"radius":3548,"sest":3549,"ager":3550,"anges":3551,"Ġwithout":3552,"Ġsou":3553,"Test":3554,"atbot":3555,"idÃ©":3556,"Ġequ":3557,"Ġimage":3558,"Ġcancer":3559,"Ġprix":3560,"Ġlangues":3561,"span":3562,"-%":3563,"ĠMais":3564,"argument":3565,"eb":3566,"ital":3567,"Ġeng":3568,"riÃ¨re":3569,"dictionary":3570,"pyplot":3571,"Ġmultiple":3572,"Ġparticulier":3573,"Mat":3574,"Ġvi":3575,"Ġdoit":3576,"Ġsymb":3577,"Ġperson":3578,"ĠSelon":3579,"rist":3580,"ĠÃ©p":3581,"Ġclasses":3582,"Ġexample":3583,"uÃ©":3584,"very":3585,"erty":3586,".,":3587,"Ġprovided":3588,"layer":3589,"Ġcalled":3590,"arge":3591,"queue":3592,"ĠcaractÃ©r":3593,"#!":3594,"CH":3595,"elif":3596,"ĠEl":3597,"Ġautom":3598,"ĠComm":3599,"ĠCountVectorizer":3600,"60":3601,"ĠPubl":3602,"ĠBel":3603,"Ġexiste":3604,"Ġnegative":3605,"Ġpermutations":3606,"!\"":3607,"copy":3608,"any":3609,"umps":3610,"ward":3611,"Ġprim":3612,"other":3613,"palindrome":3614,"til":3615,"access":3616,"ĠEdit":3617,"ĠIls":3618,"Ġanagrams":3619,"iser":3620,"Ġclassification":3621,"Ġrapport":3622,"Åĵuvre":3623,"car":3624,"Ġligne":3625,"ĠfaÃ§":3626,"Time":3627,"quences":3628,"Ġmes":3629,"alysis":3630,".')":3631,"phone":3632,"Ġcommunication":3633,"Length":3634,"ool":3635,"Ġdess":3636,"Ġcorrect":3637,"Str":3638,"Ġsolve":3639,"Ġsuccess":3640,"Ġjour":3641,"Ġauthor":3642,"Ġaccess":3643,"ĠRead":3644,"Ġaccept":3645,"ĠdÃ¨s":3646,"dev":3647,"ĠĠĠĠĠĠĠĠĠĠĠĠ":3648,"std":3649,"Ġaugment":3650,"Ġstyle":3651,"options":3652,"processing":3653,"Ġidentify":3654,"event":3655,"side":3656,"eng":3657,"ĠTrans":3658,"Ġunivers":3659,"commit":3660,"ĠcinÃ©ma":3661,"EST":3662,"optim":3663,"isÃ©":3664,"change":3665,"Int":3666,"Ġtemperature":3667,"Id":3668,"Ġevent":3669,"Ġneed":3670,"Ġcommune":3671,"Ġtravers":3672,"Ġobjects":3673,"Ġroyaume":3674,"ipeline":3675,"isÃ©e":3676,"update":3677,"Ġextr":3678,"ĠSequential":3679,"exes":3680,"Ġthread":3681,"ĠProgram":3682,"EX":3683,"iale":3684,"ades":3685,"Ġprogramming":3686,"tokens":3687,"Ġgrandes":3688,"Char":3689,"oe":3690,"Ġ()":3691,"pute":3692,"Input":3693,"Ġpersonnes":3694,"aucoup":3695,"ince":3696,"twe":3697,"uil":3698,"conde":3699,"EY":3700,"sal":3701,"Ġobj":3702,"Ġdigit":3703,"Ġcolon":3704,"duction":3705,"78":3706,"Ġsample":3707,"Ġarticle":3708,"Ġsingle":3709,"Ġtant":3710,"Ġcsv":3711,"device":3712,"ĠSa":3713,"ĠrÃ©gions":3714,"Node":3715,"largest":3716,"ru":3717,"sql":3718,"Ġcopy":3719,"ieve":3720,"ird":3721,"pus":3722,"heap":3723,"Ġtoutes":3724,"Ã©nÃ©":3725,"Ġphys":3726,"Ġvisited":3727,"Ġmerged":3728,"uples":3729,"Ġafin":3730,"Ġprat":3731,"environ":3732,"Ġtrait":3733,"rows":3734,"HT":3735,"ĠsÃ©rie":3736,"unic":3737,"emb":3738,"Ġrespect":3739,"ica":3740,"Ġproduits":3741,"correct":3742,"Ġchimie":3743,"iloc":3744,"ĠIt":3745,"Ġfilms":3746,"Ġusername":3747,"ĠcÃ©l":3748,"Ġconnect":3749,"uffle":3750,"Ġcirc":3751,"iforn":3752,"binary":3753,"Ġgrands":3754,"Ġscrape":3755,"href":3756,"loads":3757,"ks":3758,"uelle":3759,"round":3760,"quel":3761,"ĠNum":3762,"DB":3763,"ai":3764,"Ġsout":3765,"ĠOr":3766,"issing":3767,"aill":3768,"bit":3769,"ĠAinsi":3770,"ĠRandom":3771,"SS":3772,"Ġface":3773,"ĠmÃ©d":3774,"Ġimp":3775,"Ġ{}\".":3776,"ĠgrÃ¢ce":3777,"aj":3778,"Ġreconn":3779,"rier":3780,"Ġassert":3781,"inomial":3782,"Ġdjango":3783,"ropy":3784,"iments":3785,"ĠrÃ´le":3786,"istance":3787,"Ġcho":3788,"argv":3789,"Ġaccord":3790,"session":3791,"Ġenv":3792,"Ġvilles":3793,"ĠBl":3794,"ĠgÃ©nÃ©ralement":3795,"jours":3796,"ling":3797,"ove":3798,"Ġdet":3799,"seq":3800,"chim":3801,"sample":3802,"Ġthere":3803,"Ġcathol":3804,"cell":3805,"Â«":3806,"Ġimportant":3807,"ING":3808,"Ġtraditionn":3809,"Set":3810,"anana":3811,"Ġ[],":3812,"Ġouv":3813,"Ġhttp":3814,"Ġfront":3815,"Ġcoule":3816,"Ġside":3817,"als":3818,"Ġjapon":3819,"project":3820,"Array":3821,"Ġflag":3822,"Aut":3823,"ted":3824,"([[":3825,"Afrique":3826,"uits":3827,"Ġsurtout":3828,"He":3829,"Ã©p":3830,"Ġprices":3831,"Ġtechniques":3832,"ION":3833,"Ġnormal":3834,"Ġworld":3835,"Ġviv":3836,"odd":3837,"Ġisinstance":3838,"CD":3839,"call":3840,"pair":3841,"Ġdyn":3842,"ĠSy":3843,"abs":3844,"duce":3845,"ranÃ§ois":3846,"iversitÃ©":3847,"two":3848,"Ġfrequent":3849,"#!/":3850,"UL":3851,"cast":3852,"Ġtimes":3853,"Ġcat":3854,"alog":3855,"prim":3856,"Ġconsomm":3857,"LECT":3858,"Ġmetrics":3859,"mut":3860,"Ġwrit":3861,"Ġ194":3862,"Ġinflu":3863,"Ã«":3864,"itaires":3865,"icon":3866,"inte":3867,"Ġ2010":3868,"Ġcmd":3869,"Ġ'/":3870,"Ġroman":3871,"grade":3872,"Ġhandle":3873,"ting":3874,"trang":3875,"Ġproblem":3876,"br":3877,"high":3878,"Ġmis":3879,"omin":3880,"Ġplup":3881,"Ġmarqu":3882,"Ġplupart":3883,"Ġtard":3884,"Ġvectorizer":3885,"Ã©rature":3886,"posit":3887,"autÃ©":3888,"ĠJava":3889,"Ġselect":3890,"Ġmondiale":3891,"\"],":3892,"alf":3893,"ĠDepuis":3894,"ely":3895,"ommes":3896,"stop":3897,"Ġphone":3898,"Ġprincipalement":3899,"Ġdernier":3900,"ĠĠĠĠĠĠĠĠĠĠ":3901,"Ġarm":3902,"Ġseul":3903,"Ġcapital":3904,"Ġlet":3905,"ĠgÃ©":3906,"Ġprom":3907,"Ġprot":3908,"ider":3909,"Ġpremiers":3910,"ĠReturns":3911,"Th":3912,"Ġmarch":3913,"amount":3914,"istiques":3915,"Ġconnection":3916,"Ġtitre":3917,"ically":3918,"Ġ(),":3919,"ĠSer":3920,"ĠrÃ©fÃ©rences":3921,"gu":3922,"ĠGrand":3923,"predictions":3924,"ready":3925,"Ġregression":3926,"*(":3927,"erties":3928,"23":3929,"oires":3930,"Ġvale":3931,"Ġelles":3932,"\">":3933,"ĠÐ":3934,"ĠfrÃ©":3935,"ĠMult":3936,"reen":3937,"*-":3938,"Ġ?":3939,"ster":3940,"ĠDi":3941,"ics":3942,"Ġrecurs":3943,"fore":3944,"Ġconditions":3945,"Ġzone":3946,"DO":3947,"Ġlarg":3948,"Ġcart":3949,"ATE":3950,"Ġsome":3951,"aprÃ¨s":3952,"utils":3953,"ĠmÃ©di":3954,"Ġlayer":3955,"build":3956,"Ġwin":3957,"ĠMont":3958,"ignement":3959,"Ã©tÃ©s":3960,"rel":3961,"Ġpad":3962,"ele":3963,"icro":3964,"Ġlowercase":3965,"balance":3966,"Ġbeaucoup":3967,"sim":3968,"Ġtypes":3969,"ĠcÃ´t":3970,"ensions":3971,"IB":3972,"ĠMy":3973,"requencies":3974,"SELECT":3975,"Ġnouvel":3976,"ĠID":3977,"Ã©dr":3978,"Ġquestion":3979,"Ġdetermine":3980,"!')":3981,"Ġplot":3982,"entiment":3983,"ĠGe":3984,"issant":3985,"Ġimpl":3986,"files":3987,"Ġ1000":3988,"70":3989,"You":3990,"Ġfinds":3991,"PAT":3992,"}\")":3993,"pha":3994,"Ġcustom":3995,"Ġchange":3996,"Ġallow":3997,"ESS":3998,"ĠcrÃ©ation":3999,"Ġenf":4000,"Ġsupport":4001,"Ġsimil":4002,"Ġsite":4003,"ĠCrÃ©":4004,"except":4005,"ĠFROM":4006,"Ġaujourd":4007,"Ġedit":4008,"down":4009,"ordin":4010,"Ġcompar":4011,"ĠÃ©crit":4012,"Ġradius":4013,"dent":4014,"job":4015,"nt":4016,"ĠPierre":4017,"gress":4018,"Ġproc":4019,"Ġceux":4020,"bas":4021,"ither":4022,"Ġrecord":4023,"ĠGeneral":4024,"ĠMich":4025,"Ġ-*-":4026,"Ġindustr":4027,"Ġoption":4028,"itation":4029,"Ġmust":4030,"umes":4031,"Ġascending":4032,"suite":4033,"ĠLogistic":4034,"bject":4035,"elper":4036,"Ġrece":4037,"andler":4038,"Ġpeint":4039,"Ġindivid":4040,"Ġtravail":4041,"secret":4042,"Ġaur":4043,"Ġtaux":4044,"seau":4045,"Ġoff":4046,"adata":4047,"Ġstandard":4048,"Ġcertaines":4049,"classifier":4050,"script":4051,"Ġorigin":4052,"Ġurb":4053,"Ġiss":4054,"Ġdevice":4055,"Ġmultiply":4056,"auv":4057,"Index":4058,"123":4059,"ĠBrÃ©sil":4060,"template":4061,"ĠutilisÃ©":4062,"vious":4063,"Ġaf":4064,"utr":4065,"ĠGNU":4066,"ogle":4067,"ologique":4068,"Ġ},":4069,"Ġlinked":4070,"Ġlike":4071,"Ġmouvement":4072,"ĠMultinomial":4073,"sg":4074,"tom":4075,"ĉĊ":4076,"Ġes":4077,"Ġ28":4078,"Ġcollect":4079,"Ġcorps":4080,"Ġduplicates":4081,"Model":4082,"ouse":4083,"Ġtriangle":4084,".*":4085,"Ġcursor":4086,"Ġfix":4087,"andis":4088,"Ġquart":4089,"cmd":4090,"igr":4091,"Ġcependant":4092,"dle":4093,"Ġlim":4094,"Ġfiltered":4095,"ĠRÃ©publique":4096,"Ġtoujours":4097,"rim":4098,"var":4099,"annÃ©e":4100,"gest":4101,"iro":4102,"sqrt":4103,"Ġlarge":4104,"Ġremain":4105,"Ġ24":4106,"Ġjours":4107,"punctuation":4108,"inois":4109,"Ġnumer":4110,"agit":4111,"ĠCependant":4112,"ĠPublic":4113,"square":4114,"Ã©ch":4115,"ĠSi":4116,"Ġhere":4117,"Ġevery":4118,"Ġneural":4119,"ĠAnd":4120,"Ġaxis":4121,"frequent":4122,"gin":4123,"xy":4124,"Ġmen":4125,"ĠRob":4126,"make":4127,"Ġshort":4128,"Ġchef":4129,"button":4130,"Ġjourn":4131,"Ã©rit":4132,"Ġscores":4133,"Ġtransform":4134,".'":4135,"oine":4136,"alitÃ©s":4137,"Ġnodes":4138,"Ġmois":4139,"autre":4140,"ĠJac":4141,"Ġcapac":4142,"erre":4143,"aps":4144,"ourg":4145,"\").":4146,"ĠUp":4147,"Ġ80":4148,"Ġabs":4149,"ĠdÃ©sign":4150,"Ġcalculates":4151,"37":4152,"utton":4153,"ilos":4154,"Ġens":4155,"Ġunder":4156,"Ġalready":4157,"Ġautour":4158,"36":4159,"usters":4160,"({'":4161,"Im":4162,"eta":4163,"raÃ®":4164,"ĠJapon":4165,"Ġ2000":4166,"OP":4167,"city":4168,"driver":4169,"Ġincre":4170,"ily":4171,"Ġorient":4172,"oyen":4173,"do":4174,"Ã¡":4175,"erm":4176,"Ġfast":4177,"uster":4178,"Ġfamille":4179,"Ġ'--":4180,"bose":4181,"rown":4182,"Ġspecial":4183,"Ã©rieure":4184,")/":4185,"Ass":4186,"UN":4187,"ĠAs":4188,"mium":4189,"ĠValue":4190,"\"):":4191,"User":4192,"func":4193,"depth":4194,"Ġbret":4195,"Ġglobal":4196,"ope":4197,"Ġprimes":4198,"Ġcinq":4199,"Ġrapide":4200,"pochs":4201,"customer":4202,"ds":4203,"Ġlambda":4204,"Ġcamp":4205,"stock":4206,"ĠMal":4207,"ĠÃ©lev":4208,"Ġlogging":4209,"Ġmonth":4210,"Ġoutputs":4211,"ĠthÃ©or":4212,"gique":4213,"nÃ©":4214,"Ġmise":4215,"Ġwork":4216,"ĠINT":4217,"ĠÃ©tabl":4218,"Ġsorting":4219,"Ġatte":4220,"Ã¢tre":4221,"ĠannÃ©e":4222,"Ġcapitale":4223,"Ã»t":4224,"ĠMultinomialNB":4225,"ae":4226,"ding":4227,"sign":4228,"Ġsix":4229,"ption":4230,"Ġdoes":4231,"atives":4232,"ara":4233,"Ġfetch":4234,"unes":4235,"loss":4236,"vironnement":4237,"Ġagric":4238,"Ġmor":4239,"rait":4240,"ĠMod":4241,"Ġprediction":4242,"ĠPlus":4243,"Ġbois":4244,"Ġconstr":4245,"ĠprÃ©sente":4246,"Ġcorresponding":4247,"Acc":4248,"fetch":4249,"mit":4250,"ular":4251,"gex":4252,"':'":4253,"Ġdiffic":4254,"ĠClass":4255,"hum":4256,"abc":4257,"issent":4258,"HER":4259,"Script":4260,"ĠpiÃ¨":4261,"ulation":4262,"adam":4263,"Ġchatbot":4264,"RA":4265,"mary":4266,"itiÃ©":4267,"Ġappro":4268,"pi":4269,"eting":4270,"ift":4271,"Ġangl":4272,"chÃ©":4273,"prices":4274,"ĠâĢĵ":4275,"Fibonacci":4276,"KEY":4277,"over":4278,"Ġ):":4279,"Ġnat":4280,"Ġ\"\\":4281,"aper":4282,"Ġeither":4283,"ĠmaniÃ¨re":4284,"URL":4285,"imest":4286,"ĠRes":4287,"option":4288,"ĠCorÃ©e":4289,"No":4290,"eded":4291,"Ġtandis":4292,"isse":4293,"Ġ\".":4294,"ĠÃ©le":4295,"msg":4296,"extraction":4297,"types":4298,"quant":4299,"Ġchap":4300,"Ġmaint":4301,"ĠJe":4302,"Ġattributes":4303,"Handler":4304,"ĠCel":4305,"Ġentrepr":4306,"ĠpossÃ¨de":4307,"]):":4308,"bert":4309,"cur":4310,"urÃ©":4311,"ĠCert":4312,"exic":4313,"Ġinputs":4314,"ĠUser":4315,"Ġ2020":4316,"Ã®le":4317,"Ġconnu":4318,"bytes":4319,"Item":4320,"has":4321,"lin":4322,"ucl":4323,"andid":4324,"Ġdiction":4325,"ĠParse":4326,"lÃ©":4327,"ĠSQL":4328,"Ġsuff":4329,"ĠcafÃ©ine":4330,"oration":4331,"quelle":4332,"ĠMon":4333,"Ġshow":4334,"ĠintÃ©":4335,"pected":4336,"salary":4337,"pace":4338,"Ġgcd":4339,"Ã¨tes":4340,"ĠAI":4341,"iennes":4342,"ĠExtract":4343,"Ġessent":4344,"Ser":4345,"asket":4346,"ĠdÃ©fin":4347,"Ġcarb":4348,"Ġ2011":4349,"Ġì":4350,"Ġfais":4351,"Ġsave":4352,"alisation":4353,"public":4354,"Equal":4355,"SV":4356,"hy":4357,"Ġlaquelle":4358,"ĠAd":4359,"Ġcoll":4360,"Ġeffect":4361,"Ġpolitiques":4362,"inct":4363,"ament":4364,"ĠAS":4365,"aisons":4366,"soft":4367,"Ġdocuments":4368,"Ġexternes":4369,"Forest":4370,"Key":4371,"Ġrend":4372,"iver":4373,"expression":4374,"ĠdiffÃ©rentes":4375,"itue":4376,"Ġanim":4377,"article":4378,"Ġadministr":4379,"ĠdiffÃ©rents":4380,"ĠArticles":4381,"net":4382,"enir":4383,"asets":4384,"Ġ'-":4385,"Ġ60":4386,"Inst":4387,"Ġmultiplication":4388,"Ġgrade":4389,"limit":4390,"ĠClo":4391,"Ġ\"+":4392,"ĠSentiment":4393,"Ġgreat":4394,"Ġcomputer":4395,"ĠLogisticRegression":4396,"Ġinitialize":4397,"unk":4398,"antÃ©":4399,"Ġclf":4400,"Ġsalary":4401,"Ġclosest":4402,"Ġclean":4403,"Ġconserv":4404,"ĠHistoire":4405,"Ġfils":4406,"illeurs":4407,"And":4408,"Ġrestaur":4409,"Ġchars":4410,"Ġlongue":4411,"Ġ2007":4412,"DI":4413,"det":4414,"Ġtels":4415,"Ġmass":4416,"ational":4417,"ibl":4418,"Ġimportante":4419,"ĠpremiÃ¨res":4420,"Ġcertain":4421,"ĠCaliforn":4422,"Ġsem":4423,"Ġpush":4424,"Ġjust":4425,"tools":4426,"ĠspÃ©c":4427,"Ġparams":4428,"\"),":4429,"drop":4430,"rase":4431,"Ġchoice":4432,"ĠBrux":4433,"atoire":4434,"Ġmom":4435,"Ġraw":4436,"ends":4437,"ographique":4438,"module":4439,"cros":4440,"Â°":4441,"Ġsepar":4442,"Dir":4443,"Path":4444,"ifest":4445,"Ġgal":4446,"architect":4447,"Ġtravaux":4448,"Ġtkinter":4449,")[":4450,"hash":4451,"wd":4452,"Ġress":4453,"Ġbubble":4454,"iris":4455,"Ġchiff":4456,"'][":4457,"mande":4458,"Pr":4459,"ĠCont":4460,"Ġ21":4461,"cles":4462,"Ġemails":4463,"ĠcathÃ©dr":4464,"Ġconnexes":4465,"Ġzip":4466,"cock":4467,"mÃªme":4468,"vowels":4469,"users":4470,"Ġraison":4471,"porte":4472,"Ġprocesse":4473,"ĠÃ©ch":4474,"vari":4475,"Ġfib":4476,"ĠPer":4477,"Ġlevel":4478,"clude":4479,"Ġpris":4480,"Ġalso":4481,"Ġevaluate":4482,"moire":4483,"Ġweights":4484,"Ġ2014":4485,"delete":4486,"Ġdays":4487,"Ġnth":4488,"ilip":4489,"essages":4490,"prefix":4491,"cole":4492,"Ġproduit":4493,"Ġurllib":4494,"Create":4495,"onie":4496,"Ġdim":4497,"Ġste":4498,"Ġpop":4499,"Ġinfo":4500,"Ġmut":4501,"ensity":4502,"Ġ2012":4503,"Ġ2015":4504,"Ġlocal":4505,"Ġguess":4506,"SQL":4507,"sur":4508,"Ġfra":4509,"sentropy":4510,"anagram":4511,"ĠâĢĶ":4512,"Ġservices":4513,"ĠBruxelles":4514,"US":4515,"dest":4516,"rating":4517,"uver":4518,"Ġloss":4519,"ĠCro":4520,"Ġproject":4521,"loop":4522,"teil":4523,"ĠĠĠĠĠĠĠĠĠĠĠĠĠĠĠĠĠĠĠĠĠĠĠĠĠĠĠĠĠĠĠ":4524,"\":\"":4525,"Ġchecks":4526,"Ġloi":4527,"Ġencrypted":4528,"itchcock":4529,"At":4530,"Message":4531,"Ã³":4532,"Ġfle":4533,"ĠSc":4534,"install":4535,"(['":4536,"aliste":4537,"uted":4538,"Ġ[(":4539,"ĠVoir":4540,"Ġauth":4541,"objects":4542,"ĠNew":4543,"ĠdÃ©moc":4544,"Ġdetails":4545,"tings":4546,"Ġill":4547,"Ġcoding":4548,"ĠreÃ§":4549,"Ġcondition":4550,"ĠmodÃ¨le":4551,"Ġbooks":4552,"Ġcadmium":4553,"35":4554,"Empire":4555,"Please":4556,"gent":4557,"ina":4558,"second":4559,"ĠMoyen":4560,")),":4561,"lists":4562,"Ġprend":4563,"Ġ1990":4564,"Ġdirection":4565,"Ġmilieu":4566,"src":4567,"ropo":4568,"Ġold":4569,"Ġpropos":4570,"ĠInput":4571,"Analyzer":4572,"Ġdroit":4573,"Ġcalend":4574,"05":4575,"curr":4576,"rot":4577,"Ġparmi":4578,"ĠDÃ©":4579,"ĠFranÃ§ois":4580,"ĠJohn":4581,"sumer":4582,"Ġproducts":4583,"Ġuppercase":4584,"Ġcipher":4585,"ĠRandomForest":4586,"75":4587,"ĠMus":4588,"Ġtrue":4589,"Ġprobl":4590,"ĠAb":4591,"Ġ26":4592,"Åĵur":4593,"Ġpropri":4594,"={":4595,"jÃł":4596,"ĠLib":4597,"Ġprojet":4598,"Ġplay":4599,"enses":4600,"glish":4601,"Search":4602,"efficient":4603,"IP":4604,"rain":4605,"iled":4606,"Ġepochs":4607,"Ġgrec":4608,"MA":4609,"mt":4610,"Ġmol":4611,"ĠLiens":4612,"ries":4613,"ouvert":4614,"Ġliste":4615,"Ġsera":4616,"199":4617,"Ġ2009":4618,"ĠException":4619,"Ġoperator":4620,"reshape":4621,"Of":4622,"Ġsentences":4623,"Ġdomaine":4624,"Ġrecherche":4625,"crossentropy":4626,"DF":4627,"Ġconstruct":4628,"avor":4629,"mand":4630,"weight":4631,"Ġfemmes":4632,"ĠspÃ©ci":4633,"PATH":4634,"88":4635,"lam":4636,"ention":4637,"ĠDense":4638,"Ġmusique":4639,"center":4640,"ĠCrÃ©teil":4641,"({":4642,"ij":4643,"ĠText":4644,"Ġparc":4645,"aute":4646,"Ġcombinations":4647,"ene":4648,"ĠÃ®":4649,"ĠBar":4650,"Ġcourse":4651,"assertEqual":4652,"cm":4653,"ĠĠĠĠĠĠĠĠĠĠĠĠĠĠ":4654,"ĠbÃ¢t":4655,"exit":4656,"idence":4657,"Ã©mat":4658,"rage":4659,"Ġsein":4660,"Ġrespons":4661,"conf":4662,"Ġkn":4663,"Ġobt":4664,"Ġnouvelles":4665,"ĠPort":4666,"ĠPaul":4667,"Ġduplicate":4668,"ople":4669,"Ġuses":4670,"Ġexpl":4671,"Ġexec":4672,"Ġfactors":4673,"ĠChili":4674,"ĠmatÃ©ri":4675,"Ġphilos":4676,"Ġafter":4677,":%":4678,"API":4679,"FI":4680,"language":4681,"pu":4682,"Ġcounter":4683,"ĠĠĠĠĠĠĠĠĠĠĊ":4684,"weather":4685,"glise":4686,"Ã©an":4687,"Ġfab":4688,"Ġretrou":4689,"pes":4690,"yl":4691,"ished":4692,"Ġanother":4693,"Ġleast":4694,"Ġprogress":4695,"']]":4696,"Ġarticles":4697,"zy":4698,"Ġ\"/":4699,"Ġensuite":4700,"Ġappart":4701,"Ġoperation":4702,"Ġmilitaire":4703,"property":4704,"mn":4705,"ĠPart":4706,"ĠÃ©trang":4707,"auche":4708,"Ġprevious":4709,"Ġcontinent":4710,"merge":4711,"multi":4712,"Ġfac":4713,"ambre":4714,"ĠLink":4715,"ĠMart":4716,"ĠĠĠĠĠĠĠĠĠĠĠĠĠĠĠĠĠ":4717,"Ġ2008":4718,"Ġscient":4719,"reshold":4720,"+=":4721,"ĠÃ©d":4722,"ĠChine":4723,"login":4724,"ĠreprÃ©sente":4725,"divis":4726,"\\.":4727,"Ġinit":4728,"imag":4729,"ĠAt":4730,"Ġprogramme":4731,"positive":4732,"rapper":4733,"ĠeuropÃ©enne":4734,"oit":4735,"Ġday":4736,"Ġanalysis":4737,"ĠHitchcock":4738,"ĠVi":4739,"ĠchrÃ©t":4740,"ĠfaÃ§on":4741,"anche":4742,"asc":4743,"Ġdescending":4744,"Ã¨ve":4745,"Ġpratique":4746,"1000":4747,"Ġgroupes":4748,"ĠUpdate":4749,"Åį":4750,"Ġlines":4751,"Ġpur":4752,"primes":4753,"ĠĠĠĠĠĠĠĠĠĠĠĠĠĠĠĠĠĠ":4754,"Ġtechnique":4755,"Intensity":4756,"celsius":4757,"Ġdonne":4758,"asing":4759,"Ġanaly":4760,"ĠMin":4761,"ĠIN":4762,"ĠdeuxiÃ¨me":4763,"Ġrecords":4764,"wise":4765,"ots":4766,"month":4767,"Ġoriginal":4768,",\"":4769,"Ġvar":4770,"izing":4771,"udo":4772,"ĠÃ©lÃ©ments":4773,"ands":4774,"numer":4775,"('\\":4776,"Ġeux":4777,"ĠmÃ©th":4778,"ĠsuccÃ¨s":4779,"Ġmoyenne":4780,"Ġafric":4781,"']:":4782,"ĠdÃ©jÃł":4783,"Ġweight":4784,"Ġoccident":4785,"Ġcollection":4786,"unicip":4787,"ĠSentimentIntensity":4788,"28":4789,"HE":4790,"ĠConseil":4791,"Request":4792,"Ġefficient":4793,"metrics":4794,"bound":4795,"win":4796,"Ġcelles":4797,"combin":4798,"Ġwithin":4799,"prediction":4800,"Ġprincipal":4801,"actions":4802,"Ġsalle":4803,"ĠOR":4804,"Ġtraverse":4805,"Ġattr":4806,"Ġ2013":4807,"Ġanswer":4808,"Ġencoded":4809,"ĠSentimentIntensityAnalyzer":4810,"ving":4811,"aler":4812,"Ġgar":4813,"oken":4814,"Ġ90":4815,"****":4816,"Ġoperations":4817,"Ġmembres":4818,"Ġancien":4819,"Ġtweet":4820,"Ã©pendance":4821,"optimizer":4822,"55":4823,"By":4824,"Ġ),":4825,"Ġchang":4826,"ailable":4827,"Ġ2006":4828,"Ġtasks":4829,"bers":4830,"sequences":4831,"edding":4832,"Ġip":4833,"Ġ...":4834,"Ġkeyword":4835,"ĠtÃ©lÃ©v":4836,"ĠValueError":4837,")**":4838,"OS":4839,"usage":4840,"Ġapi":4841,"Ġtrop":4842,"Ġcause":4843,"Ġfoot":4844,"ĠconsidÃ©r":4845,"Ġq":4846,"ĠmoitiÃ©":4847,"ĠCalifornie":4848,"rices":4849,"Ġang":4850,"Ġchamp":4851,"udents":4852,"placement":4853,">\"":4854,"banana":4855,"cb":4856,"ogram":4857,"sup":4858,"Ġdownload":4859,"ump":4860,"Ġ\"-":4861,"Ġyield":4862,"ĠHe":4863,"Info":4864,"mark":4865,"PL":4866,"fect":4867,"ero":4868,"urg":4869,"ĠFin":4870,"ibli":4871,"']['":4872,"Ġdix":4873,"Ġtweets":4874,"rimoine":4875,"onal":4876,"rem":4877,"Ġmunicip":4878,"ctx":4879,"Ġour":4880,"ĠPerson":4881,"display":4882,"Ġretrieve":4883,"ĠCap":4884,"Ġestim":4885,"------":4886,"ablement":4887,"ĠChrist":4888,"Ġ2005":4889,"Ġzones":4890,"Ġframe":4891,"Ġpairs":4892,"bt":4893,"Ġauc":4894,"avant":4895,"ĠrÃ©sult":4896,"Ġvoit":4897,"Ġdictionaries":4898,"uid":4899,"Ġdir":4900,"ĠSim":4901,"const":4902,"Ġfinal":4903,"Ġautor":4904,"children":4905,"Europe":4906,"dog":4907,"ha":4908,"ĠbÃ©nÃ©":4909,"Ġ\"%":4910,"dio":4911,"Ġcluster":4912,"Ġstores":4913,"Ġview":4914,"]*":4915,"cision":4916,"ÃŃ":4917,"Ġmult":4918,"store":4919,"rior":4920,"ĠStr":4921,"Ġlengths":4922,"Ġ180":4923,"'})":4924,"Ġexisting":4925,"Ġfields":4926,"PC":4927,"gÃ©":4928,"ior":4929,"late":4930,"Ġcandid":4931,"ĠNot":4932,"ccess":4933,"Ġ2019":4934,"Ġpopulaire":4935,"Ġprincipaux":4936,"Ġlocation":4937,"Column":4938,"><":4939,"IST":4940,"Ġvict":4941,"ĠentraÃ®":4942,"Ġcroissance":4943,"Ġdouble":4944,"Count":4945,"zip":4946,"ony":4947,"Ġfurent":4948,"ĠSur":4949,"Ã©cut":4950,"database":4951,"Ġstd":4952,"mplo":4953,"Ġoccup":4954,"Ġverbose":4955,"Ġdon":4956,"Ġexecute":4957,"results":4958,"Ġspect":4959,"annel":4960,"ĠamÃ©ricain":4961,"Ġgenerates":4962,"34":4963,"pip":4964,"ĠRun":4965,"enerator":4966,"Ġsocket":4967,"airement":4968,"aÃ®tre":4969,"ĠderniÃ¨re":4970,"ĠappelÃ©":4971,"Ġcategories":4972,"bayes":4973,"Ġ$":4974,"ĠpÃ©t":4975,"imp":4976,"ifie":4977,"ĠDis":4978,"ĠÃ©col":4979,"As":4980,"UM":4981,"Ġsources":4982,"Ġsquares":4983,"quer":4984,"ĠÃ©m":4985,"ĠFit":4986,"(\"\\":4987,"termin":4988,"tocol":4989,"DataFrame":4990,"Ġprofession":4991,"dot":4992,"Ġlum":4993,"Ġpropre":4994,"negative":4995,"ficie":4996,"ĠsiÃ¨cle":4997,"(*":4998,"FF":4999,"days":5000,"Ġdog":5001,"leep":5002,"Ġbatch":5003,"ĠSan":5004,"ĠRen":5005,"Ġxml":5006,"Ġporte":5007,"errors":5008,"ĠcÃ©lÃ¨":5009,"UP":5010,"fer":5011,"urt":5012,"ĠnÃ©g":5013,"ingu":5014,"ĠCÃ´te":5015,"Ġ'{":5016,"ĠLors":5017,"ĠGuerre":5018,"ogn":5019,"space":5020,"Ġinternational":5021,"Ġboudd":5022,"imestamp":5023,"Comm":5024,"IG":5025,"cache":5026,"ev":5027,"pass":5028,"Ġtend":5029,"ponent":5030,"Ġappe":5031,"duc":5032,"Ġimg":5033,"lowercase":5034,"Ġcreates":5035,"Ġenvironment":5036,"Ġpalais":5037,"Ġanglais":5038,"gel":5039,"less":5040,"ĠPy":5041,"ĠÃĤ":5042,"Ġless":5043,"ĠBer":5044,"Ġclimat":5045,"Ġappend":5046,"aves":5047,"enseignement":5048,"fahrenheit":5049,"Ġdit":5050,"Ġcu":5051,"Ġdepend":5052,"ĠCD":5053,"Ġ\"<":5054,"ĠMan":5055,"ĠrÃ©seau":5056,"vention":5057,"tribute":5058,"Union":5059,"ĠrÃ©alisÃ©":5060,"roll":5061,"Ġperformance":5062,"ĠPrem":5063,"Size":5064,"once":5065,"utÃ´t":5066,"Ġ189":5067,"Ġforte":5068,"NN":5069,"anv":5070,"Ġvoy":5071,"Ġcomment":5072,"ĠRo":5073,"Ġusage":5074,"ORT":5075,"CS":5076,"digit":5077,"elem":5078,"decode":5079,"encrypt":5080,"issors":5081,"Ġstatus":5082,"products":5083,"Ġcela":5084,"filtered":5085,"Ġseulement":5086,"ĠBelgique":5087,"/'":5088,"Function":5089,"vm":5090,"isant":5091,"imize":5092,"ams":5093,"amer":5094,"olit":5095,"ordre":5096,"urls":5097,"Ġtermin":5098,"utral":5099,"87":5100,"XX":5101,"ba":5102,"chain":5103,"Ġelem":5104,"ĠBos":5105,"angl":5106,"Ġterre":5107,"ĠprÃ©sence":5108,"ĠYork":5109,"Ġsignal":5110,"posts":5111,"Ġiterate":5112,"Ġdecimal":5113,"ominator":5114,"Add":5115,"calculate":5116,"dumps":5117,"gender":5118,"Ġnorm":5119,"irm":5120,"ĠHen":5121,"Ġ2016":5122,"fact":5123,"ĠPat":5124,"exique":5125,"Ġconstruction":5126,"Ġterres":5127,"Ġconcern":5128,"Ġmondial":5129,"LOG":5130,"'\\":5131,"Age":5132,"oci":5133,"Ġast":5134,"Ġnav":5135,"unit":5136,"Ġhommes":5137,"Ġparameter":5138,"'},":5139,"Ġhabitants":5140,"Button":5141,"cel":5142,"Ġpower":5143,"Ġcraw":5144,"Ġcher":5145,"apping":5146,"Ġsorts":5147,"Ġobten":5148,"structions":5149,"ustrie":5150,"vectorizer":5151,"tmp":5152,"ĠplutÃ´t":5153,"Ġmodify":5154,"contact":5155,"Ġsituation":5156,"ĠmajoritÃ©":5157,"categorical":5158,"Ġfranc":5159,"sm":5160,"sig":5161,"Ġdot":5162,"Ġcet":5163,"Ġ(-":5164,"ending":5165,"Ġ::":5166,"isson":5167,"Ġ2018":5168,"ouverte":5169,"ĠmÃ©moire":5170,"awa":5171,"Ġoccurrences":5172,"Ġvaleur":5173,"ĠmolÃ©c":5174,"Scal":5175,"eted":5176,"Ġ(Â«":5177,"ĠDjango":5178,"ĠGo":5179,"icket":5180,"derr":5181,"Ġlatin":5182,"Ġgenre":5183,"handle":5184,"fol":5185,"hex":5186,"oms":5187,"Ġbrown":5188,"ulate":5189,"student":5190,"ĠBou":5191,"Ġseconde":5192,"Ġindices":5193,"ĠÃĤge":5194,"Get":5195,"Label":5196,"gne":5197,"quit":5198,"Ġreport":5199,"icy":5200,"Ġanimal":5201,"Ġlequel":5202,"Ġve":5203,"ĠGr":5204,"ĠEvaluate":5205,"ĠrÃ©publique":5206,"Ġterms":5207,"Ġcarbone":5208,"isÃ©s":5209,"utive":5210,"thÃ¨se":5211,"ĠLang":5212,"weights":5213,"Incorrect":5214,"ouvre":5215,"Ġimplements":5216,"Ġtitles":5217,"solution":5218,"Ġemployee":5219,"'{":5220,"Me":5221,"inÃ©e":5222,"Ġpot":5223,"anisme":5224,"usse":5225,"Ġvoir":5226,"ĠEurope":5227,"Ġrot":5228,"Ġ2017":5229,"ĠcompÃ©t":5230,"26":5231,"NA":5232,"Window":5233,"extend":5234,"ologiques":5235,"Ġexplo":5236,"Ġculturel":5237,"bes":5238,"Ð¾":5239,"onde":5240,"Ġdoll":5241,"Ġtuple":5242,"Ã©lect":5243,"Ġred":5244,"ĠCelsius":5245,"ĠÃ©poque":5246,"indre":5247,"ĠdÃ©b":5248,"Ġsym":5249,"Ġdistinct":5250,"mployee":5251,"aign":5252,"js":5253,"ideo":5254,"Ġmanifest":5255,"Ġoptimizer":5256,"Ġcategory":5257,"griculture":5258,"Ġjaponais":5259,"Prime":5260,"ibliographie":5261,"France":5262,"Ph":5263,"``":5264,"her":5265,"nie":5266,"writ":5267,"ross":5268,"Ġbody":5269,"ourse":5270,"ĠIS":5271,"Ġsecteur":5272,"ĠsiÃ¨ge":5273,"Ġcadre":5274,"39":5275,"66":5276,"CK":5277,"ulg":5278,"Ġgl":5279,"Ġwould":5280,"Ġcontrib":5281,"ĠSV":5282,"Ġchinois":5283,"ĠrÃ©p":5284,"illet":5285,"moins":5286,"riture":5287,"spam":5288,"ALU":5289,"Ġtags":5290,"Ġviol":5291,"ĠRobert":5292,"Object":5293,"Ġris":5294,"Ġrating":5295,"Ġvit":5296,"ĠModel":5297,"preprocessing":5298,"Ġspam":5299,"All":5300,"ĠcontrÃ´le":5301,"Parser":5302,"NAM":5303,"save":5304,"Ġrepe":5305,"Ġ22":5306,"ĠFahrenheit":5307,"izes":5308,"ountry":5309,"ĠNOT":5310,"Ġ->":5311,"Ġatom":5312,"Ġimm":5313,"zeros":5314,"ĠcathÃ©drale":5315,"/%":5316,"Ġsession":5317,"atter":5318,"idden":5319,"ĠSal":5320,"ĠFont":5321,"movie":5322,"header":5323,"INT":5324,"Ġ1980":5325,"localhost":5326,"ilippe":5327,"Return":5328,"tri":5329,"Ġseconds":5330,"ĠÃ©lections":5331,"epy":5332,"tax":5333,"Ġdriver":5334,"orÃ©":5335,"Ġfunc":5336,"Ġvir":5337,"ags":5338,"strong":5339,"Ġnamed":5340,"sentences":5341,"Ġcourant":5342,"Ġfourn":5343,"polarity":5344,"columns":5345,"Ġdistribution":5346,"!'":5347,"Ġten":5348,"Ġfavor":5349,"estival":5350,"Ġvill":5351,"alisme":5352,"Ġlibert":5353,"Ġ1970":5354,"Ġdroite":5355,"Ġnaturel":5356,"domain":5357,"ibilitÃ©":5358,"86":5359,"Sc":5360,"let":5361,"rest":5362,"Ġtom":5363,"isent":5364,"ĠMo":5365,"Ġ190":5366,"ressor":5367,"Ġgradi":5368,"ivalent":5369,"Ġailleurs":5370,"ĠtÃªte":5371,"Ġmap":5372,"ama":5373,"Ġgaz":5374,"Ġprote":5375,"oper":5376,"illi":5377,"issements":5378,"ifications":5379,"temper":5380,"ĠLoop":5381,"Ġsymbol":5382,"Ġmsg":5383,"iche":5384,"Ġ'',":5385,"Ġtrack":5386,"Ġaccording":5387,"dro":5388,"Ðµ":5389,"Ġslow":5390,"alphabet":5391,"aste":5392,"Ġgrid":5393,"ada":5394,"ĠRoy":5395,"Ġmatches":5396,"Ġtesting":5397,"Ġoptimized":5398,"Ġcircle":5399,"\"}":5400,"ese":5401,"Ġder":5402,"report":5403,"Ġcity":5404,"Ġinc":5405,"ĠmÃ©c":5406,"empty":5407,"ĠCopy":5408,"sez":5409,"Ġbin":5410,"ĠSto":5411,"Ġministre":5412,"Ind":5413,"Ġheader":5414,"Ġreligion":5415,"xxxx":5416,"Ġcommerce":5417,"uages":5418,"way":5419,"Ġ'%":5420,"ivent":5421,"ĠchaÃ®":5422,"forme":5423,"permut":5424,"Ġtextes":5425,"Ġcreating":5426,"uest":5427,"Ġaute":5428,"Ġcit":5429,"ĠfÃ©d":5430,"Ġthey":5431,"ĠvidÃ©":5432,"empire":5433,"Ġdispar":5434,"fitness":5435,"Ġnouveaux":5436,"propri":5437,"HERE":5438,"CA":5439,"ENT":5440,"Ġtent":5441,"Ġsau":5442,"Ġmissing":5443,"Ġrate":5444,"Ġ\"_":5445,"cha":5446,"axis":5447,"Ġbutton":5448,"Ġmoyen":5449,"Ġcouleurs":5450,"ropout":5451,"gypt":5452,"nn":5453,"Ġtmp":5454,"Ġtuples":5455,"ĠsantÃ©":5456,"ĠPays":5457,"Ġgender":5458,"edList":5459,"acr":5460,"ĠDel":5461,"ĠBibliographie":5462,"ĠRem":5463,"Ã´ne":5464,"armÃ©e":5465,"Ġmoment":5466,"31":5467,"Des":5468,"Not":5469,"Ã©on":5470,"ĠMain":5471,"ĠRom":5472,"headers":5473,"Ġdivide":5474,"Ġpublique":5475,"Ġmiddle":5476,"ĠrÃ¨gne":5477,"Ġentry":5478,"44":5479,"EM":5480,"World":5481,"tual":5482,"Ġriv":5483,"Ġwant":5484,"ĠMe":5485,"Ġchac":5486,"Ġmay":5487,"Ã©tend":5488,"ĠIntern":5489,"utilisation":5490,"Ġendpoint":5491,"ĠrÃ©gime":5492,"'}),":5493,"links":5494,"GER":5495,"Ġ).":5496,"Ġfour":5497,"Ġni":5498,"Ã©nie":5499,"ĠCompute":5500,"Ġfaible":5501,"Ġhistorique":5502,"Ġsport":5503,"Ġcarr":5504,"Ġbus":5505,"ĠdÃ©n":5506,"Ãªmes":5507,"ritann":5508,"Ġ2004":5509,"abilitÃ©":5510,"dig":5511,"nel":5512,"ril":5513,"isode":5514,"ctiv":5515,"ĠCre":5516,"Ġ2002":5517,"Ġmoderne":5518,"ĠThÃ©":5519,"ĠApple":5520,"secutive":5521,"dates":5522,"Ġte":5523,"Ġsus":5524,"orient":5525,"ĠCall":5526,"Ġgauche":5527,"ĠString":5528,"Ġqual":5529,"Ġavg":5530,"ĠStandard":5531,"256":5532,"Ġinternationale":5533,"Ġabove":5534,"Ġfemme":5535,"ĠIsland":5536,"sl":5537,"andes":5538,"Ġhow":5539,"obel":5540,"Ġsubprocess":5541,"Ġpassage":5542,"]),":5543,"fidf":5544,"wik":5545,"Ã©en":5546,"cho":5547,"abord":5548,"Ġeu":5549,"Ġpasse":5550,"Ġlangage":5551,"ĠcrÃ©Ã©":5552,"Ġfox":5553,"Ġpygame":5554,"Ġtweepy":5555,"Ġquicksort":5556,"books":5557,"TreeClassifier":5558,"Ġphysique":5559,"Output":5560,"pin":5561,"ĠmaÃ®":5562,"Ãªtes":5563,"service":5564,"adding":5565,"Ġdisc":5566,"Ġobserv":5567,"context":5568,"128":5569,"]['":5570,"lon":5571,"Ġpages":5572,"Ġcard":5573,"Ġoct":5574,"Ġva":5575,"ĠDoe":5576,"Ġsoftware":5577,"Ġcarte":5578,"ĠMarie":5579,"Ġproperties":5580,"Ġpetit":5581,"EL":5582,"jets":5583,"ng":5584,"information":5585,"Ġlanc":5586,"Ġcant":5587,"omp":5588,"ĠAvec":5589,"plays":5590,"abb":5591,"Ġassez":5592,"ACE":5593,"Ġ1960":5594,"naive":5595,"Ġnatural":5596,"Base":5597,"factor":5598,"samples":5599,"Ġcrypt":5600,"Ġflatten":5601,"tra":5602,"ĠPers":5603,"ĠMexique":5604,"ĠdÃ©t":5605,"Ġsubtract":5606,"sets":5607,"ĠFranc":5608,"IO":5609,"oÃ«":5610,"Ġpipeline":5611,"Ġcos":5612,"ĠPal":5613,"ste":5614,"Ġvue":5615,"ĠWe":5616,"Ġdirig":5617,"ĠmatiÃ¨re":5618,"findall":5619,"ĠrÃ©gul":5620,"Art":5621,"Ġprobability":5622,"Ġaurait":5623,"38":5624,"My":5625,"your":5626,"ĠTfidf":5627,"ĠMat":5628,"Ġphot":5629,"Ġdevant":5630,"ĠSee":5631,"ronique":5632,"Ġcrise":5633,"Ġmeille":5634,"Ġbelow":5635,"pository":5636,"ĠmarchÃ©":5637,"ordinates":5638,"ĠpiÃ¨ce":5639,"IV":5640,"math":5641,"ĠÅĵuvre":5642,"Ġbalance":5643,"assin":5644,"ĠsÃ©curitÃ©":5645,"Ġaccue":5646,"Ġrelations":5647,"Ġconcat":5648,"Ġdroits":5649,"Ġsuivant":5650,"fetchall":5651,"Ġphilosoph":5652,"AG":5653,"histor":5654,"vin":5655,"Ġpsy":5656,"Ġremov":5657,"ived":5658,"Ġ27":5659,"Ġserait":5660,"spagne":5661,"ITY":5662,"ĠparticuliÃ¨rement":5663,"ensional":5664,"attrs":5665,"Ġdecision":5666,"Ġrapidement":5667,"Ã³n":5668,"ĠRandomForestClassifier":5669,"65":5670,"pare":5671,"world":5672,"xlabel":5673,"atiques":5674,"urant":5675,"Ã©rations":5676,"serve":5677,"Ġbox":5678,"([\"":5679,"Ġprovince":5680,"Ġprincipales":5681,"Ġreads":5682,"uppercase":5683,"EXT":5684,"Ġpens":5685,"prob":5686,"ĠDecision":5687,"talie":5688,"ĠprÃ©par":5689,"ĠtroisiÃ¨me":5690,"Ġtraitement":5691,"Ġdollars":5692,"ylabel":5693,"Ġsat":5694,"ĠpÃ©n":5695,"Ã©ph":5696,"Ġban":5697,"Ã¨ge":5698,"idget":5699,"Ġroute":5700,"ĠVector":5701,"Ġminutes":5702,"Ġaddition":5703,"ernel":5704,"ĠphÃ©n":5705,"INSER":5706,"compound":5707,"----------------------------------------------------------------":5708,"Ġcivil":5709,"Ġpratiqu":5710,"ĠMichel":5711,"Min":5712,"draw":5713,"ll":5714,"nelle":5715,"normal":5716,"person":5717,"uros":5718,"ĠforÃªt":5719,"ĠST":5720,"Ġquot":5721,"appar":5722,"Ġ2001":5723,"contents":5724,"Ġselection":5725,"Ġcontinu":5726,"ĠCorse":5727,"ĠdÃ©finit":5728,"capital":5729,"category":5730,"ĠModify":5731,"Mod":5732,"Ãīglise":5733,"Ġconfl":5734,"Ġsecret":5735,"chimie":5736,"29":5737,"85":5738,"IA":5739,"bus":5740,"dess":5741,"kl":5742,"Ġconqu":5743,"Ġconcept":5744,"Ġ23":5745,"moid":5746,"ftime":5747,"Ġposts":5748,"emblÃ©e":5749,"ĠANY":5750,"ood":5751,"tod":5752,"Ð¸":5753,"Ġdieu":5754,"alk":5755,"issions":5756,"Ġconstitution":5757,"aide":5758,"median":5759,"inc":5760,"inv":5761,"real":5762,"Ġhist":5763,"agement":5764,"Ġappropri":5765,"ialog":5766,"Ġintersection":5767,"Ġlorsque":5768,"metadata":5769,"ABLE":5770,"mÃ©di":5771,"Ġessentiellement":5772,"eria":5773,"itter":5774,"Ġnow":5775,"amma":5776,"Ġ45":5777,"Ġbeen":5778,"Inter":5779,"Ġmov":5780,"Ġphrase":5781,"Ġcompil":5782,"Ġremplac":5783,"$$$$":5784,"Apple":5785,"Ġremaining":5786,"CR":5787,"aie":5788,"sk":5789,"Ġryth":5790,"oder":5791,"puter":5792,"means":5793,"cluster":5794,"Ġsubject":5795,"short":5796,"olean":5797,"ĠBrive":5798,"CharField":5799,"Sh":5800,"voir":5801,"Ġdone":5802,"Ġpor":5803,"ulpt":5804,"cipe":5805,"Ġstats":5806,"Ġcontents":5807,"inputs":5808,"Ġ70":5809,"temps":5810,"ĠcÃ´tÃ©":5811,"ĠJacques":5812,"Ġensemble":5813,"++":5814,"27":5815,"\\\"":5816,"iation":5817,"ucket":5818,"qui":5819,"Ġreview":5820,"ĠSci":5821,"Ġaliment":5822,"appro":5823,"ignes":5824,"ĠConst":5825,"ĠespÃ¨":5826,"Ġenfants":5827,"Pool":5828,"uzz":5829,"Ð°":5830,"isations":5831,"igue":5832,"Ġuntil":5833,"ĠMac":5834,"ubis":5835,"Ã©ral":5836,"orecast":5837,"achine":5838,"Ġformation":5839,"Ġvalidate":5840,"ĠPredict":5841,"89":5842,"It":5843,"bn":5844,"pir":5845,"Ġdraw":5846,"Ġtir":5847,"Ġdebug":5848,"Ġreven":5849,"Ġformes":5850,"Ġchois":5851,"ĠREST":5852,"ĠWAR":5853,"ĠRewrite":5854,"Ġ255":5855,"Ġexists":5856,"DAT":5857,"application":5858,"ĠInst":5859,"Ġdifference":5860,"Ġutilise":5861,"ĠdonnÃ©":5862,"Ġemploy":5863,"influ":5864,"Ġrecursive":5865,"architecture":5866,"Alle":5867,"Est":5868,"FA":5869,"What":5870,"kit":5871,"mac":5872,"ront":5873,"vant":5874,"Ġcoup":5875,"Ġforce":5876,"ĠÃ©vol":5877,"Ġjam":5878,"âĢĿ":5879,"ĠÃ©tudes":5880,"archie":5881,"Ġdisplays":5882,"Ġmembre":5883,"Ġpackage":5884,"Ġequation":5885,"PE":5886,"SL":5887,"med":5888,"menu":5889,"uge":5890,"uci":5891,"Ġfrequencies":5892,"universitÃ©":5893,"ircle":5894,"convert":5895,"Ġactu":5896,"Ġoptimization":5897,"Ġassign":5898,"ĠSoftware":5899,"Ġcartes":5900,"apsack":5901,"ducation":5902,"ĠFontaine":5903,"fg":5904,"lic":5905,"periment":5906,"Ġimages":5907,"ĠdÃ©cor":5908,"ĠReg":5909,"Ġadopt":5910,"ync":5911,"ailleurs":5912,"INSERT":5913,"Ad":5914,"Ġindi":5915,"Ġ\"--":5916,"ĠAss":5917,"Ġprefix":5918,"ĠÂ»)":5919,"uggest":5920,"ioth":5921,"Ġshortest":5922,"ĠCertains":5923,"Scaler":5924,"Bas":5925,"rary":5926,"ream":5927,"esses":5928,"Ã©conomie":5929,"strftime":5930,"explo":5931,"corpus":5932,"ĠHTTP":5933,"ĠamÃ©ricaine":5934,"Åĵuvres":5935,"ĠÃ©quip":5936,"ĠvidÃ©o":5937,"\"{":5938,"Iv":5939,"agriculture":5940,"Ġ'<":5941,"ĠBo":5942,"Ġplats":5943,"ĠRec":5944,"ĠÃ©tudi":5945,"Ġ{}'.":5946,"Ġoutre":5947,"Order":5948,"Ġespagn":5949,"ALUES":5950,"84":5951,"Ġpan":5952,"ĠTO":5953,"ĠSw":5954,"ĠMax":5955,"ĠrÃ©v":5956,"ipedia":5957,"empor":5958,"Ġ64":5959,"ĠINTO":5960,"Ġaup":5961,"ĠBern":5962,"ĠArm":5963,"ĠExample":5964,"ART":5965,"Ġquestions":5966,"btn":5967,"dtype":5968,"arc":5969,"Ġnaissance":5970,"ĠÃ¢":5971,"shuffle":5972,"Ġadapt":5973,"tweet":5974,"Ġcatholique":5975,"VER":5976,"sw":5977,"Ġmari":5978,"ĠSte":5979,"Ġplat":5980,"Ġplac":5981,"Ġdefin":5982,"Ġmontr":5983,"ĠutilisÃ©e":5984,"ĠpÃ¨re":5985,"Ã©h":5986,"isc":5987,"urer":5988,"rois":5989,"Ġrich":5990,"Ġproche":5991,"acity":5992,"gramming":5993,"Ġaltern":5994,"ĠNobel":5995,"connection":5996,"ĠĠĠĠĠĠĠĠĠĠĠĠĠĠĠĠĊ":5997,"Ġsaint":5998,"ĠParmi":5999,"Ġdatasets":6000,"ĠmÃ©dec":6001,"456":6002,"Ġfitness":6003,"Ġseptembre":6004,"UI":6005,"Ġly":6006,"ĠOF":6007,"scale":6008,"ĠconsidÃ©rÃ©":6009,"uilt":6010,",-":6011,"PR":6012,"magne":6013,"ptr":6014,"Ġaj":6015,"Ġlut":6016,"Ġrect":6017,"industrie":6018,"ĠdÃ©pend":6019,"Ġaccount":6020,"ĠappelÃ©e":6021,"New":6022,"sterdam":6023,"/<":6024,"OL":6025,"ias":6026,"tit":6027,"eno":6028,"elcome":6029,"ĠmÃ©l":6030,"ĠPe":6031,"Ġneighb":6032,"Ã©tait":6033,"Ã©tude":6034,"Ġweather":6035,"Ġgenerated":6036,"ĠKey":6037,"Ġtransport":6038,"tags":6039,"rabie":6040,"ĠJavaScript":6041,"Server":6042,"ĠÃ®les":6043,"aive":6044,"iod":6045,"rement":6046,"Ġliv":6047,"Ġlivre":6048,"()[":6049,"ĠBase":6050,"Ġallem":6051,"Ġ35":6052,"Ġ%.":6053,"ĠscÃ¨ne":6054,"Ġidx":6055,"ĠthÃ©Ã¢tre":6056,"speed":6057,"exists":6058,"Ġmesure":6059,"(_":6060,"ders":6061,"oth":6062,"Ġdemande":6063,"ifiÃ©":6064,"Ġrand":6065,"uls":6066,"uding":6067,"duire":6068,"Ġsubstrings":6069,"ĠsituÃ©":6070,"tweets":6071,"77":6072,"bed":6073,"non":6074,"ini":6075,"Ġblog":6076,"Ã¨v":6077,"ĠDu":6078,"ĠVALUES":6079,"signal":6080,"Allemagne":6081,"_='":6082,"(\"%":6083,"Ġdataframe":6084,"ĠclÃ©":6085,"select":6086,"Ġpermettant":6087,"Ġwritten":6088,"Ġlargement":6089,"ĠCela":6090,"sid":6091,"ativement":6092,"Ġfaut":6093,"Ġmicro":6094,"Ġmessages":6095,"Ġlesqu":6096,"active":6097,"Ġev":6098,"Ġsculpt":6099,"screen":6100,"Ġpoly":6101,"Arm":6102,"Ġsciences":6103,"occurr":6104,"Ġdistributed":6105,"ameroun":6106,"gypte":6107,"CE":6108,"Ġ'\\":6109,"Ġchart":6110,"=='":6111,"ĠrÃ©volution":6112,"aude":6113,"Ġrandomly":6114,"Ġordin":6115,"ĠrÃ©fÃ©rence":6116,"Ġmillions":6117,"Ġfaisant":6118,">'":6119,"Line":6120,"hn":6121,"Ã¨che":6122,"iteur":6123,"ainer":6124,"Ġmai":6125,"Ã©rÃªt":6126,"Ġcommence":6127,"socket":6128,"ĠStudent":6129,"ĠutilisÃ©s":6130,"Ġfigure":6131,"Ġdynam":6132,"anvier":6133,"urosawa":6134,"dl":6135,"Ġtyp":6136,"Ġcelsius":6137,"ison":6138,"exception":6139,"ĠWHERE":6140,"contrib":6141,"consumer":6142,"ancien":6143,"ĠKurosawa":6144,"ĠdÃ©cembre":6145,"Ġparticip":6146,"Ġdomain":6147,"Ġheaders":6148,"system":6149,"Ġbreton":6150,"urtle":6151,".',":6152,"Pre":6153,"Ã©b":6154,"asion":6155,"role":6156,"Ġrue":6157,"ĠPost":6158,"ĠPoint":6159,"starts":6160,"Ġfruits":6161,"ĠrÃ©alisateur":6162,"Ġmajor":6163,"ĠsÃ©par":6164,"Ġconsommation":6165,"ĠprotÃ©g":6166,"/{":6167,"Ġmexic":6168,"iew":6169,"ĠDan":6170,"aye":6171,"moves":6172,"preh":6173,"Ġmodules":6174,"ĠsystÃ¨mes":6175,"Ġreligie":6176,"Ġpresque":6177,"Date":6178,"best":6179,"homme":6180,"ino":6181,"Ġdepth":6182,"Ġ((":6183,"rient":6184,"lore":6185,"objet":6186,"\"].":6187,"Ant":6188,"Ġstatut":6189,"record":6190,"Def":6191,"Ġcommerci":6192,"ĠSoci":6193,">',":6194,"El":6195,"pan":6196,"anim":6197,"icien":6198,"Ã¨que":6199,"igu":6200,"('-":6201,"ĠRed":6202,"Ġmaison":6203,"Ġpersonne":6204,"Ġcoefficient":6205,"ĠÃ©criv":6206,"Ġcycle":6207,"activitÃ©":6208,"Ġstopwords":6209,"softmax":6210,"erve":6211,"arest":6212,"alt":6213,"()))":6214,"Ġsee":6215,"Ġjanvier":6216,"Ã©tiques":6217,"entry":6218,"compagn":6219,"ĠlÃ©gis":6220,"Ġmots":6221,"Ġreligieux":6222,"Ġcomprend":6223,"iels":6224,"nodes":6225,"ĠdÃ©r":6226,"roy":6227,"Ġreal":6228,"Ġway":6229,"olution":6230,"Ġvia":6231,"Ġunsorted":6232,"ĠNic":6233,"compl":6234,"illon":6235,"ĠindÃ©pend":6236,"ĠÃ©gl":6237,"Ġanciennes":6238,"Ġgene":6239,"Ġentreprises":6240,"temperature":6241,"Ivoire":6242,">\\":6243,"Ġir":6244,"Ġutf":6245,"iness":6246,"release":6247,"orge":6248,"ĠcitÃ©":6249,"Ġenreg":6250,"Ġunit":6251,"Ġmag":6252,"Ġclasse":6253,"avg":6254,"Ġsubst":6255,"ĠInter":6256,"Ġavailable":6257,"Ġ1999":6258,"Ġjamais":6259,"Ouest":6260,"iÃ©s":6261,"Ġtax":6262,"ĠmÃ¨re":6263,"Ġvall":6264,"Ġconse":6265,"Ġconseil":6266,"ĠrÃ©f":6267,"iller":6268,"Ã©dÃ©":6269,"Client":6270,"Child":6271,"Ġpermutation":6272,"ĠapparaÃ®t":6273,"ĠintÃ©gr":6274,"ios":6275,"je":6276,"Ġnor":6277,"expr":6278,"Ġforces":6279,"()]":6280,"Ã©rer":6281,"ĠVers":6282,"ĠEntre":6283,"Ġavaient":6284,"bleau":6285,"Ġjoueur":6286,"Ġdestination":6287,"movies":6288,"Accuracy":6289,"hi":6290,"joint":6291,"ĠfÃ©":6292,"Ġnoy":6293,"ĠTree":6294,"ĠToken":6295,"oling":6296,"Ġcompreh":6297,"ĠName":6298,"ĠEmployee":6299,"Ġmusul":6300,"Ġsuperficie":6301,"AmÃ©rique":6302,"Ġindividual":6303,"ĠBosnie":6304,"ĠCopyright":6305,"CL":6306,"fn":6307,"mith":6308,"Ġdimin":6309,"Ġpauv":6310,"itime":6311,"alpha":6312,"Ġlazy":6313,"Ġsummary":6314,"Ġpaths":6315,"Ġpermettent":6316,"ĠFontainebleau":6317,"Log":6318,"naire":6319,"oid":6320,"erb":6321,"rea":6322,"Ġctx":6323,"Ġrecomm":6324,"Ġdesign":6325,"ĠMÃ©":6326,"ĠdÃ©tr":6327,"aissent":6328,"formations":6329,"ĉĉĉĉĉ":6330,"Ġcommenc":6331,"Ġcreated":6332,"Ġrunning":6333,"emails":6334,"ÂłÂłÂłÂł":6335,"istics":6336,"stdout":6337,"Ġdynast":6338,"Means":6339,"-),":6340,"48":6341,"CM":6342,"Em":6343,"half":6344,"lant":6345,"itut":6346,"Ġexit":6347,"Ġ%),":6348,"entrÃ©e":6349,"ĠconnaÃ®t":6350,"ĠactivitÃ©s":6351,"Ġrequire":6352,"Ġradio":6353,"spec":6354,"squared":6355,"RANT":6356,"NAME":6357,"ĠWARRANT":6358,"lim":6359,"Ġsrc":6360,"oring":6361,"anoi":6362,"imer":6363,"Ġ'))":6364,"Ġconstru":6365,"ĠSant":6366,"ĠBas":6367,"obil":6368,"Ġscrap":6369,"Ġdispon":6370,"Ġmanage":6371,"Ġprovo":6372,"Ġpatrimoine":6373,"oudite":6374,")\\":6375,"Qu":6376,"full":6377,"lation":6378,"oute":6379,"sleep":6380,"Ġreduce":6381,"Ġjoin":6382,"Ġsociale":6383,"Ġconstitue":6384,"ĠTfidfVectorizer":6385,"can":6386,"Ġtelles":6387,"ismes":6388,"ivÃ©e":6389,"Ġdescend":6390,"Ġdispose":6391,"Invalid":6392,"Ġlook":6393,"ology":6394,"Ġmars":6395,"Ġstarting":6396,"Ġpeupl":6397,"DEL":6398,"Ġitertools":6399,"ABC":6400,"ĠdÃ©clar":6401,":])":6402,"ASE":6403,"Ġlingu":6404,"Ġsl":6405,"ĠFree":6406,"ĠRome":6407,"ĠOpen":6408,"Ã©taire":6409,"Ġfinding":6410,"Integ":6411,"ario":6412,"Ġcompagn":6413,"ĠĠĠĠĠĠĠĠĠĠĠĠĠĠĠĠĠĠĠĠĠĠĠĠĠĠĠĠĠĠĠĠĠĠ":6414,"Ġhtt":6415,"Ġpuissance":6416,"mont":6417,"pa":6418,"orange":6419,"Ġcalc":6420,"throp":6421,"ĠCalcul":6422,"rages":6423,"Ġsection":6424,"indÃ©pendance":6425,"Ġrespond":6426,"Ġsettings":6427,"ched":6428,"Sorted":6429,"Ġretrouve":6430,"Ġappropriate":6431,"=%":6432,"Dec":6433,"Post":6434,"ham":6435,"reviews":6436,"Ġinvert":6437,"ifiques":6438,"Ġrac":6439,"Ġprofit":6440,"resse":6441,"Ġnews":6442,"spir":6443,"ĠÃ©gypt":6444,"Ġattribute":6445,"influence":6446,"Be":6447,"FT":6448,"aa":6449,"}'":6450,"erland":6451,"Ġcam":6452,"ingt":6453,"ested":6454,"ĠSub":6455,"ĠMer":6456,"ĠFound":6457,"ĠFOR":6458,"neighbors":6459,"obre":6460,"Ġcontempor":6461,"Ġparties":6462,"=\"\")":6463,"Ġconverts":6464,"Ġfortement":6465,"encoded":6466,"ĠlittÃ©rature":6467,"Ġculte":6468,"ĠAND":6469,"Code":6470,"CON":6471,"Word":6472,"cut":6473,"atie":6474,"Ġmand":6475,"Ġappr":6476,"ialize":6477,"Ġparti":6478,"ĠInitial":6479,"iquitÃ©":6480,"ĠprÃ©v":6481,"Ġretour":6482,"ĠsituÃ©e":6483,"(.*":6484,")*":6485,"DA":6486,"warning":6487,"Ġinvent":6488,"rome":6489,"ĠDÃ©c":6490,"ĠscÃ©n":6491,"Ġcharge":6492,"udget":6493,"Ġkeywords":6494,"onds":6495,"Ġparticular":6496,"tasks":6497,"95":6498,"Check":6499,"ÑĤ":6500,"Ġpi":6501,"ĠSuggest":6502,"clusters":6503,"agu":6504,"ĠEmpire":6505,"ĠĠĠĠĠĠĠĠĠĠĠĠĠĠĠĠĠĠĠĠ":6506,"Ġclassique":6507,"Ġfeu":6508,"Ġpetite":6509,"RNA":6510,"lig":6511,"Ġfull":6512,"Ġdevelop":6513,"Ġ'*":6514,"ĠMad":6515,"ĠqualitÃ©":6516,"anger":6517,"setup":6518,"Image":6519,"We":6520,"norm":6521,"rin":6522,"erman":6523,"Ġtem":6524,"ascal":6525,"istan":6526,"ĠCentre":6527,"pliqu":6528,"ĠChamp":6529,"Ġbefore":6530,"volume":6531,"Ġdiverses":6532,"Ġswap":6533,"Ġprocesseur":6534,"Ġscientifique":6535,"combinations":6536,"iÃ©e":6537,"ators":6538,"Ġnov":6539,"Ġreviews":6540,"unt":6541,"this":6542,"Ġtool":6543,"Ġbasket":6544,"Ġgest":6545,"Ġven":6546,"Ġconv":6547,"ĠSu":6548,"Ġquand":6549,"ĠRel":6550,"ensitÃ©":6551,"Ġatta":6552,"Ġsaoudite":6553,"Ġ2003":6554,"Ġjeune":6555,"255":6556,"oseph":6557,"################################################################":6558,"Ġquantity":6559,"ifiÃ©e":6560,"+'":6561,"02":6562,"habit":6563,"true":6564,"Ġbritann":6565,"ively":6566,"ĠexÃ©cut":6567,"Ġ500":6568,"ocab":6569,"ĠConnect":6570,"rowser":6571,"ĠcommunautÃ©":6572,"Ġcapt":6573,"ĠâĢľ":6574,"ministration":6575,"ILITY":6576,"startswith":6577,"Home":6578,"custom":6579,"ping":6580,"Ġicon":6581,"Ġerrors":6582,"cteurs":6583,"ĠChe":6584,"stderr":6585,"ĠRÃ©g":6586,"issons":6587,"Ġintro":6588,"Ã¢ge":6589,"Ġdisting":6590,"news":6591,"Ġsocial":6592,"Ġmilitaires":6593,"Ġanciens":6594,"ĠspÃ©cial":6595,"Ġengine":6596,"Ġquartier":6597,"Ġgradient":6598,"ĠphÃ©nom":6599,"54":6600,"Lo":6601,"cv":6602,"ground":6603,"lor":6604,"pk":6605,"}\".":6606,"Ġsouver":6607,"Ã©gor":6608,"asure":6609,"ĠTerre":6610,"Ġvingt":6611,"Ġmagn":6612,"ĠrÃ©part":6613,"ĠĠĠĠĠĠĠĠĠĠĠĠĠĠĠĠĠĠĠĠĠ":6614,"Ġlogin":6615,"onnes":6616,"Ġactive":6617,"Ġabsol":6618,"ĠgÃ©nÃ©rale":6619,"ĠcomposÃ©":6620,"Ġcancers":6621,")])":6622,"67":6623,"Distance":6624,"cad":6625,"download":6626,"ĠcÃ´te":6627,"arde":6628,"Ġfree":6629,"Ġense":6630,"Ġ[-":6631,"ago":6632,"ĉĉĊ":6633,"Ġtexte":6634,"ĠAngel":6635,"Ġmarque":6636,"Ġprincipale":6637,"ĠÃītat":6638,"Ġscience":6639,"groups":6640,"ĠprÃ©cÃ©d":6641,"Ġconfiguration":6642,"sigmoid":6643,"/\"":6644,"Occ":6645,"Ġke":6646,"Ġtaille":6647,"ley":6648,"Ġmn":6649,"ameters":6650,"Ã¨les":6651,"hisme":6652,"ĠComme":6653,"Ġmanip":6654,"Ġdomin":6655,"Ġnormalize":6656,"here":6657,"english":6658,"Ġforecast":6659,"Ġrecon":6660,"three":6661,"rir":6662,"ĠdÃ©ro":6663,"texts":6664,"ĠInt":6665,"Ġindic":6666,"rappe":6667,"occup":6668,"Random":6669,"helper":6670,"pages":6671,"atifs":6672,"Ġ().":6673,"owel":6674,"Ġpatient":6675,"register":6676,"Ġmemory":6677,"Per":6678,"Ġsom":6679,"Ġpix":6680,"Ġreq":6681,"Ġrepro":6682,"grÃ¨s":6683,"aisse":6684,"iande":6685,"Ġdistances":6686,"ĠsociÃ©tÃ©s":6687,"Ġregroup":6688,"Ġatteint":6689,"68":6690,"::":6691,"Ġdates":6692,"Ġcop":6693,"icale":6694,"Ġ##":6695,"Ġhor":6696,"Ġarrays":6697,"Ġwebpage":6698,"Ġspeed":6699,"Ġprincipe":6700,"Uni":6701,"glom":6702,"ĠmusÃ©e":6703,"Ġincluding":6704,"Ġtokenize":6705,"ĠPhilippe":6706,"iblioth":6707,"ĠHenri":6708,"ĠDecisionTreeClassifier":6709,"Ġhttps":6710,"PT":6711,"gg":6712,"png":6713,"Ġâ":6714,"Ġlcs":6715,"Ġpa":6716,"Ġcube":6717,"imeter":6718,"prise":6719,"ications":6720,"Ġ*=":6721,"paths":6722,"Ġterm":6723,"Ġargparse":6724,"ĠÃīditions":6725,"ĠdÃ©fense":6726,"Ġsimilarity":6727,"ĠcÃ©lÃ¨bre":6728,"ĠFrancis":6729,".)":6730,"generator":6731,"mal":6732,"rich":6733,"ĠÅĵuvres":6734,"admin":6735,"Ġthird":6736,"Ġhistoire":6737,"Ġround":6738,"avid":6739,"Ġpopulations":6740,"Ġstatement":6741,"Ġcalculator":6742,"Ġhaute":6743,"HTTP":6744,"uclÃ©":6745,"OM":6746,"cÃ©e":6747,"home":6748,"iction":6749,"iou":6750,"mul":6751,"Ġsmall":6752,"alth":6753,"Ġhuit":6754,"izz":6755,"Ġprise":6756,"ogne":6757,"Ġexport":6758,"ressions":6759,"scal":6760,"cols":6761,"Ġ1997":6762,"Ġdivisor":6763,"denominator":6764,"Java":6765,"SM":6766,"fam":6767,"kh":6768,"ker":6769,"sage":6770,"Ġfun":6771,"Ġmys":6772,"ĠÃ©po":6773,"])):":6774,"Ġsujet":6775,"Ġphase":6776,"Ġconsole":6777,"....":6778,"Ġjeunes":6779,".-":6780,"smallest":6781,"esar":6782,"Ã¨tres":6783,"ĠBook":6784,"ĠNaive":6785,"Ġshop":6786,"Ġfille":6787,"Ã©mie":6788,"Sequential":6789,"svm":6790,"ĠÃ©coles":6791,"Ġlis":6792,"Ġlois":6793,"Ġmeur":6794,"Ġvoire":6795,"ontre":6796,"Ġmak":6797,"Ġ34":6798,"ĠrÃ©un":6799,"ĠdÃ©couvert":6800,"ĠArch":6801,"ĠsupÃ©rieur":6802,"clean":6803,"ĠreprÃ©sentant":6804,"ÂłÂłÂł":6805,"ĠtÃ©lÃ©vision":6806,"Ġappears":6807,"Ġmovies":6808,"push":6809,"urity":6810,"Ġdecode":6811,"Ġhab":6812,"Ġplate":6813,"')]":6814,"aka":6815,"ĠEnfin":6816,"yees":6817,"Ã©raire":6818,"Ġancienne":6819,"Ġcombination":6820,"dimensional":6821,"================================================================":6822,"difference":6823,"Ġjuillet":6824,"simil":6825,"Player":6826,"nector":6827,"ĠGa":6828,"ĠGET":6829,"aises":6830,"Ġ31":6831,"ĠrÃ©al":6832,"ĠĠĠĠĠĠĠĠĠĠĠĠĠĠĠĠĠĠĠĠĠĠĠĠĠĠĠĠĠĠĠĠĠĠĠ":6833,"Ġ400":6834,"foo":6835,"ĠArgs":6836,"ĠToute":6837,"Numbers":6838,"assertTrue":6839,"Ġhistoriques":6840,"Ġauthent":6841,"Is":6842,"Pos":6843,"View":6844,"upe":6845,"ĠĠĠĠĠĊ":6846,"rev":6847,"atrice":6848,"Ġcache":6849,"Ġfill":6850,"ĠPIB":6851,"ĠBien":6852,"ĠdÃ©put":6853,"Ġsortie":6854,"Ġkwargs":6855,"Ġobjective":6856,"ĠCompile":6857,"zzle":6858,"ĠthÃ©orie":6859,"ĠespÃ¨ces":6860,"Print":6861,"ference":6862,"gers":6863,"mission":6864,"Ġtab":6865,"Ġcul":6866,"Ġdesired":6867,"ĠSup":6868,"ĠGrande":6869,"agraph":6870,"ĠWh":6871,"Ġouvert":6872,"End":6873,"Ġmultipl":6874,"ĠcomposÃ©s":6875,"ergie":6876,"Ġchapelle":6877,"crit":6878,"hol":6879,"Ġdiss":6880,"Ġrelev":6881,"ĠCON":6882,"ĠCSV":6883,"ado":6884,"Ġcomport":6885,"required":6886,"Ġinterpr":6887,"2021":6888,"commun":6889,"ĠStack":6890,"Ġlorsqu":6891,"Ġromain":6892,"Ġchimique":6893,"Ġofficielle":6894,"Ġcustomers":6895,"Find":6896,"Total":6897,"[['":6898,"ris":6899,"uk":6900,"Ġdeme":6901,"Ġnoir":6902,"Ġregex":6903,"Ġbon":6904,"Ġvois":6905,"Ġpron":6906,"phi":6907,"iales":6908,"Ġimpro":6909,"Ġmodified":6910,"alyse":6911,"Ġvalidation":6912,"Response":6913,"Exception":6914,"END":6915,"Ġdevenir":6916,"58":6917,"Arabie":6918,"Table":6919,"git":6920,"atus":6921,"ori":6922,"roids":6923,"emment":6924,"rige":6925,"ĠSch":6926,"Ġprinting":6927,"ĠUS":6928,"Ã©riques":6929,"Ġsetup":6930,"ĠKh":6931,"control":6932,"ormais":6933,"ĠderniÃ¨res":6934,"character":6935,"Ġdirectement":6936,"google":6937,"ĠElles":6938,"Ġressources":6939,"Bo":6940,"Vert":6941,"sert":6942,"ved":6943,"Ġemp":6944,"environnement":6945,"ason":6946,"imiter":6947,"ĠTri":6948,"Ġtot":6949,"ulaires":6950,"appy":6951,"Ġneeded":6952,"Ġlogic":6953,"Ġadding":6954,"Ġinterest":6955,"Ġspace":6956,"ABILITY":6957,"lexand":6958,"based":6959,"Ġknapsack":6960,"Ð¾Ð":6961,"PS":6962,"pp":6963,"ĠtÃ©":6964,"Ġple":6965,"ark":6966,"Ġfactor":6967,"thique":6968,"intÃ©":6969,"Ġvect":6970,"Ġparle":6971,"Ġhomme":6972,"tool":6973,"ponents":6974,"Ġ2022":6975,"oise":6976,"Ġdisque":6977,"fÃ©rences":6978,"Ġprotection":6979,"ĠStandardScaler":6980,"76":6981,"CRE":6982,"pad":6983,"xi":6984,"ĠCongo":6985,"Ġbes":6986,"extract":6987,"ĠSp":6988,"Ġcompose":6989,"Ġsecr":6990,"toine":6991,"Ã©guy":6992,"Ġderniers":6993,"empereur":6994,"Ġdecrypt":6995,"ramid":6996,"ĠNumber":6997,"urÃ©at":6998,"Â°Â°":6999,"divisible":7000,"ĠSVC":7001,"Price":7002,"bs":7003,"gon":7004,"sure":7005,"Ġiv":7006,"Ġtel":7007,"Ġturn":7008,"ano":7009,"ali":7010,"Ġbit":7011,"cide":7012,"(\"-":7013,"('%":7014,"Ġ2021":7015,"Ġimpos":7016,"ĠAnt":7017,"Ġ1998":7018,"ĠProv":7019,"Ġprocessing":7020,"orges":7021,"Ġcellules":7022,"esseur":7023,"Pol":7024,"wait":7025,"Ġach":7026,"Ġsure":7027,"ĠnuclÃ©":7028,"icode":7029,"Ġbran":7030,"cipl":7031,"ĠBinary":7032,"Ġrouge":7033,"Ġnoms":7034,"Ġinterface":7035,"ĠTraverse":7036,"docs":7037,"Ġjoueurs":7038,"Ġconcaten":7039,"IF":7040,"fun":7041,"ike":7042,"ennent":7043,"Ġfive":7044,"images":7045,"ĠTHE":7046,"ĠCIA":7047,"Ġunders":7048,"plib":7049,"Ġexpected":7050,"Ġ%(":7051,"Ã©nergie":7052,"Ġperd":7053,"Ġlibre":7054,"Ġartistes":7055,"Ġmettre":7056,"Ġjuin":7057,"Content":7058,"06":7059,"La":7060,"Orient":7061,"bon":7062,"Ġmenu":7063,"ĠCo":7064,"ĠvÃ©rit":7065,"riques":7066,"ĠcomÃ¨te":7067,"individ":7068,"Ġ%)":7069,"Ġdipl":7070,"Ġdispos":7071,"Ã©dition":7072,"Ġencoding":7073,"Ġheap":7074,"Ġfonctions":7075,"Ġcompris":7076,"fully":7077,"handler":7078,"Ġallows":7079,"Py":7080,"bye":7081,"squares":7082,"wrapper":7083,"thread":7084,"ĠLanguage":7085,"oule":7086,"irs":7087,"Ġpourrait":7088,"Ġimportantes":7089,"Ġpartis":7090,"ologies":7091,"ĠAll":7092,"predicted":7093,"Start":7094,"Ġmatching":7095,"organisation":7096,"Ġgreatest":7097,"ĠMartin":7098,"Ġframework":7099,"triangle":7100,"Integer":7101,"500":7102,"review":7103,"Ġpie":7104,"itor":7105,"Ġviande":7106,"otion":7107,"Ġhours":7108,"Ġdefines":7109,"upin":7110,"ĠEX":7111,"ĠWIT":7112,"Ġsoum":7113,"Ġfinalement":7114,"Ġbegin":7115,"State":7116,"Ġnovembre":7117,"Oper":7118,"YZ":7119,"evaluate":7120,"gy":7121,"tuple":7122,"ville":7123,"inet":7124,"Ġdown":7125,"Ġlater":7126,"itutions":7127,"ĠPet":7128,"ĠCy":7129,"Ġbro":7130,"Ġeval":7131,"Ġshuffle":7132,"ĠnommÃ©":7133,"ĠdÃ©couverte":7134,"package":7135,"Ġvolume":7136,"Ġmaje":7137,"ratie":7138,"Ġoccurrence":7139,"Ġbottom":7140,"customers":7141,"(?":7142,"Activ":7143,"vader":7144,"oto":7145,"Ġclusters":7146,"Ġ1995":7147,"dirname":7148,"ĠChartres":7149,"ĠLinkedList":7150,"=[\"":7151,"Espagne":7152,"]],":7153,"ige":7154,"aton":7155,"Ġinspir":7156,"style":7157,"agnes":7158,"Ġros":7159,"Ġnotion":7160,"matizer":7161,"Ġpeuple":7162,"STM":7163,"Ġheadlines":7164,"Ġtravaill":7165,"Ġterritoires":7166,"gene":7167,"Ġconstraint":7168,"={'":7169,"avec":7170,"cart":7171,"fc":7172,"iance":7173,"Ġsaison":7174,"Ġnos":7175,"quÃ©":7176,"amÃ©ric":7177,"ĠPÃ©guy":7178,"ĠCameroun":7179,"Ġanarch":7180,"chase":7181,"ĠÃ©lu":7182,"ĠFil":7183,"Ġprendre":7184,"Ã©rant":7185,"Ġsurface":7186,"Ã©tabl":7187,"ĠÂ»),":7188,"Ġconnue":7189,"isher":7190,"ĠURLs":7191,"Ġvolont":7192,"ĠsiÃ¨cles":7193,"Ġtourisme":7194,"Ġrepresenting":7195,"ĠmalgrÃ©":7196,"Ġdevenu":7197,"ĠcaractÃ©ristiques":7198,"Ġbouddhisme":7199,"ĠmÃ©can":7200,"dessus":7201,"Ġmysql":7202,":.":7203,"?)":7204,"TR":7205,"ao":7206,"Ġnour":7207,"icisme":7208,"osph":7209,"ĠRad":7210,"Ġrecens":7211,"ĠfondÃ©e":7212,"records":7213,"Ã©roÃ¯":7214,"Ġyears":7215,"Ġmalad":7216,"capacity":7217,"Ã©quipe":7218,"blocks":7219,"Ġinvest":7220,"Ġinfluence":7221,"ĠPlusieurs":7222,"Ġstep":7223,"Form":7224,"PORT":7225,"tant":7226,"Ġcab":7227,"Ġmission":7228,"depend":7229,"ĠCost":7230,"Ġbata":7231,"Ġge":7232,"Ġparall":7233,"irth":7234,"Ġjug":7235,"Ġconsist":7236,"Enc":7237,"Ġstored":7238,"Ġcoordinates":7239,"iropr":7240,"mtplib":7241,"permutations":7242,"exploitation":7243,"ĠFoundation":7244,")//":7245,"+\"":7246,"factorial":7247,"Ġput":7248,"Ã©ros":7249,"Ġmasse":7250,"Ġredis":7251,"iciens":7252,"Ġbord":7253,"chron":7254,"Ġprotest":7255,"ĠSmith":7256,"ĠMaur":7257,"ĠDo":7258,"upes":7259,"Ġscal":7260,"reader":7261,"Ġpopular":7262,"Ġremont":7263,"mbedding":7264,"CHA":7265,"xyz":7266,"Ġillustr":7267,")*(":7268,"LM":7269,"URE":7270,"card":7271,"mm":7272,"pay":7273,"erce":7274,"Ġvient":7275,"Ġproven":7276,"))]":7277,"agÃ©":7278,"ĠRou":7279,"Ġexact":7280,"Ġexerc":7281,"Ġcontrol":7282,"ĠHow":7283,"Ġ65":7284,"Ġimag":7285,"Ġtrouv":7286,"Ġarts":7287,"Ġprovin":7288,"ĠdÃ©sormais":7289,"Ġmontre":7290,"Neighbors":7291,"HOUT":7292,"Ġhashlib":7293,"Auver":7294,"}/":7295,"Ġden":7296,"ĠCour":7297,"ivitÃ©":7298,"Ġquas":7299,"ĠGall":7300,"ĠNou":7301,"Ġshape":7302,"Ġsubs":7303,"Ġavril":7304,"ussian":7305,"Ġtrib":7306,"Ġantique":7307,"ĠcapacitÃ©":7308,"Ġcalendrier":7309,"numerator":7310,"Auvergne":7311,".\",":7312,"74":7313,"79":7314,"rl":7315,"rits":7316,"Ġdtype":7317,"ĠPol":7318,"Ġble":7319,"Ġmaze":7320,"ĠII":7321,"encontre":7322,"Ġcentral":7323,"Ġ75":7324,"Ġdivision":7325,"Ġchemin":7326,"Ġcenter":7327,"Ġscipy":7328,"ĠnÃ©erland":7329,"Average":7330,"Clo":7331,"USER":7332,"fail":7333,"frequencies":7334,"hot":7335,"uant":7336,"Ġpay":7337,"Ġfahrenheit":7338,"imm":7339,"ember":7340,"intÃ©rieur":7341,"Ġbron":7342,"Ġethn":7343,"Ġvra":7344,"Ġthese":7345,"ĠBa":7346,"Ġalpha":7347,"Ġ1950":7348,"ĠDeux":7349,"ĠKMeans":7350,"cessed":7351,"Ġtermes":7352,"ĠXML":7353,"ĠCharente":7354,"ĠcrÃ©Ã©e":7355,"Ġjeux":7356,"parameters":7357,"Product":7358,"Ġgroups":7359,"mÃ©tr":7360,"Ġtoutefois":7361,"Ġautomat":7362,"ĠRemove":7363,"QU":7364,"\\'":7365,"fill":7366,"wn":7367,"Ġpunctuation":7368,"ĠBayes":7369,"ubles":7370,"ĠmaxLength":7371,"ĠÃ©tude":7372,"classes":7373,"pool":7374,"Ġamb":7375,"Ġlanguages":7376,"Repository":7377,"ĠAnn":7378,"ĠSeconde":7379,"desc":7380,"ĠStart":7381,"Ġconstituent":7382,"Ġofficiel":7383,"Ġcritique":7384,"Ġpackages":7385,"ĠSystem":7386,"Ġlettres":7387,"Ġagricole":7388,"MO":7389,"dic":7390,"sender":7391,"Ġsmtplib":7392,"ifies":7393,"ĠPan":7394,"ĠCulture":7395,"Ġ\"\".":7396,"('--":7397,"ĠJos":7398,"2020":7399,"ĠpassÃ©":7400,"anner":7401,"Ãīgypte":7402,"Ġremar":7403,"ĠdurÃ©e":7404,"Ġblanc":7405,"Ġagain":7406,"Ġoccidentale":7407,"72":7408,"CII":7409,"ende":7410,"Ġnn":7411,"ife":7412,"Ġray":7413,"ĠTEXT":7414,"ĠTABLE":7415,"ĠSum":7416,"ĠĠĠĠĠĠĠĠĠĠĠĠĠĠĠĠĠĠĠĠĠĠĠĠĠ":7417,"compute":7418,"Ã©tat":7419,"Ġapport":7420,"Ãªque":7421,"Ġrelation":7422,"Ġ``":7423,"Ġacqu":7424,"Values":7425,"ĠRÃ©fÃ©rences":7426,"ĠconstituÃ©":7427,"Ġequivalent":7428,"Ġconstruit":7429,"Ġcomprehension":7430,"Ġdynastie":7431,"HomeDir":7432,"BU":7433,"tÃ©":7434,"tuples":7435,"Ġrepo":7436,"ĠTw":7437,"idity":7438,"ptime":7439,"(\"/":7440,"ĠGÃ©":7441,"Ġjur":7442,"Ġaspect":7443,"Ġcls":7444,"ĠtraitÃ©":7445,"--------------":7446,"Ġ>>":7447,"ĠSearch":7448,"Ġoptimal":7449,"Ġaccompagn":7450,"Ġterritor":7451,"SSH":7452,"Ġinfluenc":7453,"ĠRoyaume":7454,"OUR":7455,"gend":7456,"rm":7457,"include":7458,"attrib":7459,"Ġbande":7460,"Ġglob":7461,"ota":7462,"Ġarmes":7463,"ĠDÃ¨s":7464,"ĠNorm":7465,"Ġaudio":7466,"Ġ%,":7467,"ignore":7468,"Ġcorpus":7469,"Ġoccur":7470,"ALL":7471,"ANG":7472,"Ġlarger":7473,"Ġdifficile":7474,"details":7475,"ĠCroatie":7476,"ĠfÃ©min":7477,",'":7478,"CI":7479,"Palindrome":7480,"PUT":7481,"Ġdialog":7482,"Ġmobil":7483,"ĠLos":7484,"Ġquad":7485,"ĠWeb":7486,"Ġtrace":7487,"foot":7488,"Ġoppos":7489,"ambod":7490,"Ġmultiples":7491,"ĠconsidÃ©ra":7492,"delÃł":7493,"Ġcultures":7494,"ĠParti":7495,"ĠSwap":7496,"ĠToutefois":7497,"Map":7498,"ef":7499,"rooms":7500,"Ġconson":7501,"Ġconsecutive":7502,"ĠWilli":7503,"ailles":7504,"Ġtests":7505,"ĠParameters":7506,"ynomial":7507,"Ġextracts":7508,"Ġconcentr":7509,"Ġpersonnage":7510,"ĠamÃ©ricains":7511,"Ġthreading":7512,"Ġcouleur":7513,"Ġreceived":7514,"ĠAndrÃ©":7515,"AssemblÃ©e":7516,"factors":7517,"Pooling":7518,"ih":7519,"lp":7520,"Ġactions":7521,"enter":7522,"iform":7523,"export":7524,"rire":7525,"ĠFirst":7526,"ĠEd":7527,"Ġsche":7528,"question":7529,"ials":7530,"Ġcols":7531,"Ġonline":7532,"Ġminimize":7533,"requires":7534,"submit":7535,"Ġgrav":7536,"Ġparsed":7537,"green":7538,"Ġinsertion":7539,"ĠcaractÃ¨re":7540,"Ġprimaires":7541,"Ġfootball":7542,"ĠBernard":7543,"ĠAngeles":7544,"`,":7545,"ailed":7546,"counter":7547,"fred":7548,"uent":7549,"Ġtim":7550,"Ġpap":7551,"Ġnuit":7552,"ico":7553,"olve":7554,"Ġ29":7555,"ĠFe":7556,"Ġchiropr":7557,"ĠBret":7558,"Ã©criture":7559,"Ġstructures":7560,"bole":7561,"Ġ{},":7562,"ĠdÃ©veloppe":7563,"ĠdÃ©veloppÃ©":7564,"Ġchimiques":7565,"ĠÃ©levÃ©":7566,"ĠStore":7567,"63":7568,"Trans":7569,"Ã©tr":7570,"Ġcm":7571,"see":7572,"ged":7573,"Ġwon":7574,"ĠLupin":7575,"plus":7576,"irc":7577,"cier":7578,"Ġchanges":7579,"Ġital":7580,"prÃ©s":7581,"ĠÃ©tat":7582,"container":7583,"Ġzero":7584,"Ġsuppl":7585,"Ġ1993":7586,"Ġ1994":7587,"Ġlocale":7588,"Ġhex":7589,"Ġcontexte":7590,"Ġangle":7591,"Ġconcernant":7592,"Ġoctobre":7593,"ĠPersonn":7594,"Blob":7595,"GB":7596,"Welcome":7597,"cy":7598,"fut":7599,"font":7600,"mask":7601,"paper":7602,"rb":7603,"}\"":7604,"Ġara":7605,"Ġlin":7606,"Ġsemble":7607,"Ġpont":7608,"orde":7609,"Ġbour":7610,"exerc":7611,"Ġ\"\")":7612,")).":7613,"Ġrois":7614,"erts":7615,"series":7616,"Ġshift":7617,"Ġsuit":7618,"ERR":7619,"Ġprocessus":7620,"Ġvoix":7621,"offset":7622,"ĠfrontiÃ¨re":7623,"Ġjaponaise":7624,"igration":7625,"Ġdifficult":7626,"abcdef":7627,"uclide":7628,"gentine":7629,"Ġcherche":7630,"Ġauteurs":7631,"Calculate":7632,"Sp":7633,"TH":7634,"[^":7635,"]}":7636,"bum":7637,"xim":7638,"Ã¼":7639,"Ġpalindrom":7640,"orage":7641,"Ġmieux":7642,"exec":7643,"ĠconÃ§":7644,"connector":7645,"ĠHistor":7646,"Ġdirige":7647,"Ġtroupes":7648,"formatique":7649,"iterran":7650,"meta":7651,"Ġculturelle":7652,"Ġpuiss":7653,"ĠFrancs":7654,"Matrix":7655,"aeiou":7656,"DIR":7657,"Ġrisque":7658,"ĠchaÃ®ne":7659,"oriented":7660,"ĠWITHOUT":7661,"Area":7662,"];":7663,"help":7664,"Ġsan":7665,"animal":7666,"Ġmac":7667,"ican":7668,"Ġvot":7669,"ĠSes":7670,"Ġalong":7671,"indices":7672,"ĠNo":7673,"ĠWhat":7674,"Ġclub":7675,"percent":7676,"Ġrecettes":7677,"Ġsolutions":7678,"Ġpublished":7679,"ETE":7680,"accÃ¨s":7681,"nerg":7682,"ĠreprÃ©sentent":7683,"Ġvivant":7684,"Ġaucun":7685,"ĠlumiÃ¨re":7686,"Module":7687,"\"][":7688,"59":7689,"Link":7690,"Tag":7691,"aite":7692,"far":7693,"liers":7694,"ns":7695,"ty":7696,"tab":7697,"}_":7698,"enf":7699,"Ġpert":7700,"rock":7701,"ilib":7702,"Ġbits":7703,"defin":7704,"administration":7705,"andie":7706,"neur":7707,"Ġroutes":7708,"],[":7709,"Ġrelie":7710,"ĠSecond":7711,"ORD":7712,"ĠsynthÃ¨se":7713,"ĠCommun":7714,"Ġincreasing":7715,"Ġajout":7716,"Ġbritannique":7717,"CREATE":7718,"Title":7719,"fort":7720,"regex":7721,"Ġprior":7722,"Ġrare":7723,"ĠMag":7724,"Ġthreshold":7725,"Ġjumps":7726,"appel":7727,"ĠdÃ©termin":7728,"aug":7729,"classify":7730,"Ġparts":7731,"Ġbeing":7732,"Ã©gÃ©t":7733,"volt":7734,"Ġregular":7735,"itespace":7736,"agnost":7737,"Ġcivile":7738,"ponses":7739,"Ġwinner":7740,"ĠdÃ©signer":7741,"ĠdÃ©mocr":7742,"Ġfrancoph":7743,"Ġpotent":7744,"AntiquitÃ©":7745,"!\",":7746,"62":7747,"Car":7748,"CESS":7749,"PAS":7750,"cnt":7751,"}'.":7752,"ĠcÅĵur":7753,"Ġtoday":7754,"ĠLim":7755,"ola":7756,"Ġparl":7757,"ĠSous":7758,"ĠMongo":7759,"irect":7760,"ithub":7761,"phan":7762,"ĠLaurÃ©at":7763,"Ġdiag":7764,"Ġshell":7765,"Ġmatrices":7766,"ariable":7767,"ernal":7768,"Ġcommunaut":7769,"ARY":7770,"Ġdomaines":7771,"Ġcouvert":7772,"Ġvoie":7773,"Ġsavoir":7774,"Ġchoices":7775,"LOGGER":7776,"82":7777,"Case":7778,"Mean":7779,"dont":7780,"wers":7781,"Ġdemand":7782,"etic":7783,"Ġrat":7784,"ĠTur":7785,"Ġbound":7786,"antin":7787,"Ġchant":7788,"')[":7789,"auteur":7790,"Ġdiffus":7791,"Ġconnus":7792,"Ġ1992":7793,"berg":7794,"Ġvisual":7795,"Ġpredicted":7796,"ĠSainte":7797,"Ġromaine":7798,"Process":7799,"document":7800,"crimin":7801,"ĠproblÃ¨me":7802,".),":7803,"69":7804,"Two":7805,"Up":7806,"naires":7807,"xt":7808,"zA":7809,"zone":7810,"ĠaÃ©ri":7811,"Ġlit":7812,"Ġtables":7813,"Ġpierre":7814,"Ġhors":7815,"Ġhalf":7816,"ĠBi":7817,"ĠInsert":7818,"charge":7819,"Ġrelative":7820,"ĠfranÃ§aises":7821,"Ġmany":7822,"Ġmontagne":7823,"ĠprÃ©sidentielle":7824,"Substring":7825,"Ġseparate":7826,"ĠproblÃ¨mes":7827,"Ġquotid":7828,"'m":7829,"?,":7830,"aune":7831,"Ġlon":7832,"Ã©volution":7833,"anfile":7834,"stats":7835,"oux":7836,"ĠprÃ©d":7837,"ĠET":7838,"alect":7839,"illa":7840,"ernet":7841,"Ġlangages":7842,"alisÃ©e":7843,"Alger":7844,"Ġstatic":7845,"Ġcalculating":7846,"Ġmoyens":7847,"Ġpetits":7848,"direct":7849,"Ġcombine":7850,"Ġimplied":7851,"Ġchiffres":7852,"Ġprogressivement":7853,"encrypted":7854,"Ġnavig":7855,"ĠauprÃ¨s":7856,"Your":7857,"Äģ":7858,"Ġable":7859,"Ġtre":7860,"Ã©lection":7861,"amps":7862,"ifiers":7863,"ĠTechn":7864,"Ġproport":7865,"click":7866,"strptime":7867,"vals":7868,"Ġ<<":7869,"appendChild":7870,"avoir":7871,"astronomie":7872,"Ġpositions":7873,"interface":7874,"ĠrÃ©gional":7875,"Ġcloth":7876,"Ġgenerator":7877,"Params":7878,"ĠfrÃ©qu":7879,"Ġcapacity":7880,"Common":7881,"uclidean":7882,":'":7883,"Ab":7884,"Call":7885,"PU":7886,"jo":7887,"pivot":7888,"sudo":7889,"uelles":7890,"rection":7891,"Ġsm":7892,"Ġdep":7893,"rog":7894,"omet":7895,"Ġlac":7896,"uler":7897,"plific":7898,"###":7899,"ĠGame":7900,"addr":7901,"Ġspat":7902,"logger":7903,"Ã©raux":7904,"existence":7905,"Ġcrawler":7906,"titles":7907,"ĠvallÃ©e":7908,"Italie":7909,"course":7910,"power":7911,"incip":7912,"ended":7913,"Ġpadding":7914,"threshold":7915,"Ġ'')":7916,"ĠLabel":7917,"listen":7918,"agent":7919,"ĠEst":7920,"ureau":7921,"Ġsoul":7922,"sche":7923,"Ġuseful":7924,"ĠmathÃ©mat":7925,"Ġsyntax":7926,"Ġmarks":7927,"guess":7928,"Ġissus":7929,"Ġissue":7930,"Ġattrs":7931,"vmfs":7932,"similarity":7933,"71":7934,"oot":7935,"Ġsites":7936,"Ġpick":7937,"anes":7938,"ism":7939,"Ġfro":7940,"este":7941,"Ġbuilt":7942,"ĠdÃ©l":7943,"Ġnotre":7944,"ĠVol":7945,"dule":7946,"duite":7947,"Ġpeople":7948,"Ã§ant":7949,"ĠamÃ©l":7950,"ĠpubliÃ©":7951,"Ġtableau":7952,"ĠProcess":7953,"Ġlocales":7954,"POSE":7955,"ĠÃ©conomiques":7956,"Ġjustice":7957,"Ġallemand":7958,"AY":7959,"Generate":7960,"Optim":7961,"equ":7962,"just":7963,"uuid":7964,"Ġlignes":7965,"Ġturtle":7966,"isodes":7967,"aliment":7968,"Ġnull":7969,"Ġhouse":7970,"ĠGen":7971,"Ġseq":7972,"Ġjard":7973,"Ġexpos":7974,"arts":7975,"Ġlongtemps":7976,"mainloop":7977,"Ġ1991":7978,"Ġotherwise":7979,"Ġpropres":7980,"ĠprÃ©cis":7981,"symb":7982,"Ġpsych":7983,"Ġnoyau":7984,"DELETE":7985,"PRO":7986,"RU":7987,"global":7988,"iate":7989,"uÃ©s":7990,"orb":7991,"analyse":7992,"Ġmett":7993,"Ġriz":7994,"ĠvÃ©gÃ©t":7995,"rien":7996,"Ġpropose":7997,"idÃ©e":7998,"ĠIP":7999}